{
  "version": "1.0",
  "truncation": {
    "direction": "Right",
    "max_length": 128,
    "strategy": "LongestFirst",
    "stride": 0
  },
  "padding": {
    "strategy": {
      "Fixed": 128
    },
    "direction": "Right",
    "pad_to_multiple_of": null,
    "pad_id": 0,
    "pad_type_id": 0,
    "pad_token": "[PAD]"
  },
  "added_tokens": [
    {
      "id": 0,
      "content": "[PAD]",
      "single_word": false,
      "lstrip": false,
      "rstrip": false,
      "normalized": false,
      "special": true
    },
    {
      "id": 1,
      "content": "[UNK]",
      "single_word": false,
      "lstrip": false,
      "rstrip": false,
      "normalized": false,
      "special": true
    },
    {
      "id": 2,
      "content": "[CLS]",
      "single_word": false,
      "lstrip": false,
      "rstrip": false,
      "normalized": false,
      "special": true
    },
    {
      "id": 3,
      "content": "[SEP]",
      "single_word": false,
      "lstrip": false,
      "rstrip": false,
      "normalized": false,
      "special": true
    },
    {
      "id": 4,
      "content": "[MASK]",
      "single_word": false,
      "lstrip": false,
      "rstrip": false,
      "normalized": false,
      "special": true
    }
  ],
  "normalizer": {
    "type": "BertNormalizer",
    "clean_text": true,
    "handle_chinese_chars": true,
    "strip_accents": null,
    "lowercase": true
  },
  "pre_tokenizer": {
    "type": "BertPreTokenizer"
  },
  "post_processor": {
    "type": "TemplateProcessing",
    "single": [
      {
        "SpecialToken": {
          "id": "[CLS]",
          "type_id": 0
        }
      },
      {
        "Sequence": {
          "id": "A",
          "type_id": 0
        }
      },
      {
        "SpecialToken": {
          "id": "[SEP]",
          "type_id": 0
        }
      }
    ],
    "pair": [
      {
        "SpecialToken": {
          "id": "[CLS]",
          "type_id": 0
        }
      },
      {
        "Sequence": {
          "id": "A",
          "type_id": 0
        }
      },
      {
        "SpecialToken": {
          "id": "[SEP]",
          "type_id": 0
        }
      },
      {
        "Sequence": {
          "id": "B",
          "type_id": 1
        }
      },
      {
        "SpecialToken": {
          "id": "[SEP]",
          "type_id": 1
        }
      }
    ],
    "special_tokens": {
      "[CLS]": {
        "id": "[CLS]",
        "ids": [
          2
        ],
        "tokens": [
          "[CLS]"
        ]
      },
      "[SEP]": {
        "id": "[SEP]",
        "ids": [
          3
        ],
        "tokens": [
          "[SEP]"
        ]
      }
    }
  },
  "decoder": {
    "type": "WordPiece",
    "prefix": "##",
    "cleanup": true
  },
  "model": {
    "type": "WordPiece",
    "unk_token": "[UNK]",
    "continuing_subword_prefix": "##",
    "max_input_chars_per_word": 100,
    "vocab": {
      "[PAD]": 0,
      "[UNK]": 1,
      "[CLS]": 2,
      "[SEP]": 3,
      "[MASK]": 4,
      "<S>": 5,
      "<T>": 6,
      "!": 7,
      "\"": 8,
      "#": 9,
      "$": 10,
      "%": 11,
      "&": 12,
      "'": 13,
      "(": 14,
      ")": 15,
      "*": 16,
      "+": 17,
      ",": 18,
      "-": 19,
      ".": 20,
      "/": 21,
      "0": 22,
      "1": 23,
      "2": 24,
      "3": 25,
      "4": 26,
      "5": 27,
      "6": 28,
      "7": 29,
      "8": 30,
      "9": 31,
      ":": 32,
      ";": 33,
      "<": 34,
      "=": 35,
      ">": 36,
      "?": 37,
      "@": 38,
      "[": 39,
      "\\": 40,
      "]": 41,
      "^": 42,
      "_": 43,
      "`": 44,
      "a": 45,
      "b": 46,
      "c": 47,
      "d": 48,
      "e": 49,
      "f": 50,
      "g": 51,
      "h": 52,
      "i": 53,
      "j": 54,
      "k": 55,
      "l": 56,
      "m": 57,
      "n": 58,
      "o": 59,
      "p": 60,
      "q": 61,
      "r": 62,
      "s": 63,
      "t": 64,
      "u": 65,
      "v": 66,
      "w": 67,
      "x": 68,
      "y": 69,
      "z": 70,
      "{": 71,
      "|": 72,
      "}": 73,
      "~": 74,
      "¡": 75,
      "£": 76,
      "¤": 77,
      "¥": 78,
      "©": 79,
      "«": 80,
      "®": 81,
      "°": 82,
      "·": 83,
      "»": 84,
      "¿": 85,
      "×": 86,
      "ß": 87,
      "ø": 88,
      "đ": 89,
      "ı": 90,
      "œ": 91,
      "ʼ": 92,
      "α": 93,
      "ι": 94,
      "а": 95,
      "в": 96,
      "д": 97,
      "е": 98,
      "и": 99,
      "л": 100,
      "м": 101,
      "н": 102,
      "о": 103,
      "п": 104,
      "р": 105,
      "с": 106,
      "т": 107,
      "ь": 108,
      "ב": 109,
      "ו": 110,
      "י": 111,
      "ל": 112,
      "ם": 113,
      "،": 114,
      "؛": 115,
      "؟": 116,
      "ء": 117,
      "ا": 118,
      "ب": 119,
      "ة": 120,
      "ت": 121,
      "ث": 122,
      "ج": 123,
      "ح": 124,
      "خ": 125,
      "د": 126,
      "ذ": 127,
      "ر": 128,
      "ز": 129,
      "س": 130,
      "ش": 131,
      "ص": 132,
      "ض": 133,
      "ط": 134,
      "ظ": 135,
      "ع": 136,
      "غ": 137,
      "ف": 138,
      "ق": 139,
      "ك": 140,
      "ل": 141,
      "م": 142,
      "ن": 143,
      "ه": 144,
      "و": 145,
      "ى": 146,
      "ي": 147,
      "٠": 148,
      "١": 149,
      "٢": 150,
      "٣": 151,
      "٤": 152,
      "٥": 153,
      "٦": 154,
      "٧": 155,
      "٨": 156,
      "٩": 157,
      "٪": 158,
      "٫": 159,
      "٬": 160,
      "٭": 161,
      "ٱ": 162,
      "ٲ": 163,
      "ٸ": 164,
      "ٹ": 165,
      "ٽ": 166,
      "پ": 167,
      "چ": 168,
      "ڈ": 169,
      "ڑ": 170,
      "ړ": 171,
      "ڕ": 172,
      "ژ": 173,
      "ڜ": 174,
      "ڢ": 175,
      "ڤ": 176,
      "ڥ": 177,
      "ڨ": 178,
      "ک": 179,
      "ڪ": 180,
      "ګ": 181,
      "ڭ": 182,
      "گ": 183,
      "ڵ": 184,
      "ں": 185,
      "ھ": 186,
      "ہ": 187,
      "ۃ": 188,
      "ۆ": 189,
      "ی": 190,
      "ێ": 191,
      "ې": 192,
      "ے": 193,
      "۔": 194,
      "ە": 195,
      "ۦ": 196,
      "۰": 197,
      "۱": 198,
      "۲": 199,
      "۳": 200,
      "۴": 201,
      "۵": 202,
      "۶": 203,
      "۸": 204,
      "۽": 205,
      "ݣ": 206,
      "क": 207,
      "त": 208,
      "द": 209,
      "प": 210,
      "म": 211,
      "य": 212,
      "र": 213,
      "ह": 214,
      "ा": 215,
      "ि": 216,
      "ी": 217,
      "ಠ": 218,
      "ღ": 219,
      "ᄉ": 220,
      "ᄋ": 221,
      "ᄏ": 222,
      "ᄐ": 223,
      "ᅡ": 224,
      "ᅣ": 225,
      "ᅩ": 226,
      "ᅵ": 227,
      "ᆫ": 228,
      "ᆷ": 229,
      "–": 230,
      "—": 231,
      "‘": 232,
      "’": 233,
      "“": 234,
      "”": 235,
      "•": 236,
      "…": 237,
      "‼": 238,
      "‿": 239,
      "⁉": 240,
      "€": 241,
      "⃣": 242,
      "←": 243,
      "↓": 244,
      "↔": 245,
      "↖": 246,
      "↗": 247,
      "↙": 248,
      "↩": 249,
      "↪": 250,
      "⇦": 251,
      "√": 252,
      "⌚": 253,
      "⌛": 254,
      "⏪": 255,
      "⏰": 256,
      "⏳": 257,
      "━": 258,
      "┛": 259,
      "┻": 260,
      "■": 261,
      "▪": 262,
      "▫": 263,
      "▶": 264,
      "◀": 265,
      "◇": 266,
      "○": 267,
      "◍": 268,
      "●": 269,
      "◾": 270,
      "☀": 271,
      "☁": 272,
      "★": 273,
      "☆": 274,
      "☎": 275,
      "☑": 276,
      "☔": 277,
      "☕": 278,
      "☘": 279,
      "☜": 280,
      "☝": 281,
      "☠": 282,
      "☹": 283,
      "☺": 284,
      "☻": 285,
      "♀": 286,
      "♂": 287,
      "♓": 288,
      "♔": 289,
      "♚": 290,
      "♠": 291,
      "♡": 292,
      "♣": 293,
      "♤": 294,
      "♥": 295,
      "♦": 296,
      "♧": 297,
      "♨": 298,
      "♪": 299,
      "♫": 300,
      "♻": 301,
      "⚘": 302,
      "⚜": 303,
      "⚠": 304,
      "⚡": 305,
      "⚪": 306,
      "⚫": 307,
      "⚽": 308,
      "⛄": 309,
      "⛅": 310,
      "⛈": 311,
      "⛔": 312,
      "✅": 313,
      "✈": 314,
      "✉": 315,
      "✊": 316,
      "✋": 317,
      "✌": 318,
      "✍": 319,
      "✏": 320,
      "✒": 321,
      "✓": 322,
      "✔": 323,
      "✖": 324,
      "✧": 325,
      "✨": 326,
      "✴": 327,
      "✿": 328,
      "❀": 329,
      "❄": 330,
      "❇": 331,
      "❌": 332,
      "❎": 333,
      "❓": 334,
      "❗": 335,
      "❣": 336,
      "❤": 337,
      "❶": 338,
      "➖": 339,
      "➡": 340,
      "➿": 341,
      "⠀": 342,
      "⤵": 343,
      "⬅": 344,
      "⬆": 345,
      "⬇": 346,
      "⭐": 347,
      "⭕": 348,
      "ⴰ": 349,
      "ⵉ": 350,
      "ⵏ": 351,
      "ⵙ": 352,
      "《": 353,
      "》": 354,
      "〰": 355,
      "〽": 356,
      "シ": 357,
      "ツ": 358,
      "ㅤ": 359,
      "彡": 360,
      "ﭘ": 361,
      "ﭨ": 362,
      "ﮈ": 363,
      "ﮐ": 364,
      "ﮔ": 365,
      "ﮟ": 366,
      "ﮧ": 367,
      "ﮨ": 368,
      "ﮭ": 369,
      "ﮯ": 370,
      "ﯕ": 371,
      "ﯽ": 372,
      "ﯾ": 373,
      "ﯿ": 374,
      "﴾": 375,
      "﴿": 376,
      "ﷲ": 377,
      "ﷴ": 378,
      "ﷺ": 379,
      "ﷻ": 380,
      "ﺀ": 381,
      "ﺁ": 382,
      "ﺂ": 383,
      "ﺃ": 384,
      "ﺄ": 385,
      "ﺆ": 386,
      "ﺇ": 387,
      "ﺊ": 388,
      "ﺋ": 389,
      "ﺌ": 390,
      "ﺍ": 391,
      "ﺎ": 392,
      "ﺏ": 393,
      "ﺐ": 394,
      "ﺑ": 395,
      "ﺒ": 396,
      "ﺓ": 397,
      "ﺔ": 398,
      "ﺕ": 399,
      "ﺖ": 400,
      "ﺗ": 401,
      "ﺘ": 402,
      "ﺚ": 403,
      "ﺛ": 404,
      "ﺜ": 405,
      "ﺝ": 406,
      "ﺞ": 407,
      "ﺟ": 408,
      "ﺠ": 409,
      "ﺡ": 410,
      "ﺢ": 411,
      "ﺣ": 412,
      "ﺤ": 413,
      "ﺦ": 414,
      "ﺧ": 415,
      "ﺨ": 416,
      "ﺩ": 417,
      "ﺪ": 418,
      "ﺫ": 419,
      "ﺬ": 420,
      "ﺭ": 421,
      "ﺮ": 422,
      "ﺯ": 423,
      "ﺰ": 424,
      "ﺱ": 425,
      "ﺲ": 426,
      "ﺳ": 427,
      "ﺴ": 428,
      "ﺵ": 429,
      "ﺶ": 430,
      "ﺷ": 431,
      "ﺸ": 432,
      "ﺹ": 433,
      "ﺺ": 434,
      "ﺻ": 435,
      "ﺼ": 436,
      "ﺽ": 437,
      "ﺾ": 438,
      "ﺿ": 439,
      "ﻀ": 440,
      "ﻁ": 441,
      "ﻂ": 442,
      "ﻃ": 443,
      "ﻄ": 444,
      "ﻈ": 445,
      "ﻉ": 446,
      "ﻊ": 447,
      "ﻋ": 448,
      "ﻌ": 449,
      "ﻏ": 450,
      "ﻐ": 451,
      "ﻑ": 452,
      "ﻒ": 453,
      "ﻓ": 454,
      "ﻔ": 455,
      "ﻕ": 456,
      "ﻖ": 457,
      "ﻗ": 458,
      "ﻘ": 459,
      "ﻙ": 460,
      "ﻚ": 461,
      "ﻛ": 462,
      "ﻜ": 463,
      "ﻝ": 464,
      "ﻞ": 465,
      "ﻟ": 466,
      "ﻠ": 467,
      "ﻡ": 468,
      "ﻢ": 469,
      "ﻣ": 470,
      "ﻤ": 471,
      "ﻥ": 472,
      "ﻦ": 473,
      "ﻧ": 474,
      "ﻨ": 475,
      "ﻩ": 476,
      "ﻪ": 477,
      "ﻫ": 478,
      "ﻬ": 479,
      "ﻭ": 480,
      "ﻮ": 481,
      "ﻯ": 482,
      "ﻰ": 483,
      "ﻱ": 484,
      "ﻲ": 485,
      "ﻳ": 486,
      "ﻴ": 487,
      "ﻵ": 488,
      "ﻷ": 489,
      "ﻹ": 490,
      "ﻻ": 491,
      "ﻼ": 492,
      "￼": 493,
      "🅰": 494,
      "🆕": 495,
      "🇦": 496,
      "🇧": 497,
      "🇨": 498,
      "🇩": 499,
      "🇪": 500,
      "🇫": 501,
      "🇬": 502,
      "🇭": 503,
      "🇮": 504,
      "🇯": 505,
      "🇰": 506,
      "🇱": 507,
      "🇲": 508,
      "🇳": 509,
      "🇴": 510,
      "🇵": 511,
      "🇶": 512,
      "🇷": 513,
      "🇸": 514,
      "🇹": 515,
      "🇺": 516,
      "🇼": 517,
      "🇾": 518,
      "🇿": 519,
      "🌀": 520,
      "🌃": 521,
      "🌄": 522,
      "🌅": 523,
      "🌆": 524,
      "🌇": 525,
      "🌈": 526,
      "🌊": 527,
      "🌋": 528,
      "🌌": 529,
      "🌍": 530,
      "🌎": 531,
      "🌏": 532,
      "🌐": 533,
      "🌑": 534,
      "🌔": 535,
      "🌕": 536,
      "🌙": 537,
      "🌚": 538,
      "🌛": 539,
      "🌜": 540,
      "🌝": 541,
      "🌞": 542,
      "🌟": 543,
      "🌠": 544,
      "🌤": 545,
      "🌧": 546,
      "🌪": 547,
      "🌱": 548,
      "🌲": 549,
      "🌳": 550,
      "🌴": 551,
      "🌶": 552,
      "🌷": 553,
      "🌸": 554,
      "🌹": 555,
      "🌺": 556,
      "🌻": 557,
      "🌼": 558,
      "🌾": 559,
      "🌿": 560,
      "🍀": 561,
      "🍁": 562,
      "🍂": 563,
      "🍃": 564,
      "🍅": 565,
      "🍆": 566,
      "🍇": 567,
      "🍉": 568,
      "🍊": 569,
      "🍋": 570,
      "🍌": 571,
      "🍎": 572,
      "🍏": 573,
      "🍑": 574,
      "🍒": 575,
      "🍓": 576,
      "🍔": 577,
      "🍕": 578,
      "🍖": 579,
      "🍗": 580,
      "🍞": 581,
      "🍟": 582,
      "🍩": 583,
      "🍪": 584,
      "🍫": 585,
      "🍬": 586,
      "🍭": 587,
      "🍯": 588,
      "🍰": 589,
      "🍲": 590,
      "🍳": 591,
      "🍴": 592,
      "🍵": 593,
      "🍷": 594,
      "🍸": 595,
      "🍹": 596,
      "🍺": 597,
      "🍻": 598,
      "🍼": 599,
      "🍾": 600,
      "🎀": 601,
      "🎁": 602,
      "🎂": 603,
      "🎃": 604,
      "🎄": 605,
      "🎅": 606,
      "🎆": 607,
      "🎇": 608,
      "🎈": 609,
      "🎉": 610,
      "🎊": 611,
      "🎋": 612,
      "🎓": 613,
      "🎖": 614,
      "🎗": 615,
      "🎙": 616,
      "🎤": 617,
      "🎥": 618,
      "🎧": 619,
      "🎩": 620,
      "🎬": 621,
      "🎭": 622,
      "🎮": 623,
      "🎯": 624,
      "🎵": 625,
      "🎶": 626,
      "🎸": 627,
      "🎹": 628,
      "🎻": 629,
      "🎼": 630,
      "🏁": 631,
      "🏃": 632,
      "🏄": 633,
      "🏅": 634,
      "🏆": 635,
      "🏊": 636,
      "🏋": 637,
      "🏠": 638,
      "🏡": 639,
      "🏥": 640,
      "🏩": 641,
      "🏮": 642,
      "🏳": 643,
      "🏴": 644,
      "🏵": 645,
      "🏻": 646,
      "🏼": 647,
      "🏽": 648,
      "🏾": 649,
      "🏿": 650,
      "🐀": 651,
      "🐄": 652,
      "🐇": 653,
      "🐈": 654,
      "🐍": 655,
      "🐏": 656,
      "🐐": 657,
      "🐑": 658,
      "🐒": 659,
      "🐓": 660,
      "🐔": 661,
      "🐕": 662,
      "🐜": 663,
      "🐝": 664,
      "🐟": 665,
      "🐣": 666,
      "🐥": 667,
      "🐦": 668,
      "🐩": 669,
      "🐪": 670,
      "🐫": 671,
      "🐯": 672,
      "🐰": 673,
      "🐱": 674,
      "🐴": 675,
      "🐵": 676,
      "🐶": 677,
      "🐸": 678,
      "🐺": 679,
      "🐼": 680,
      "👀": 681,
      "👁": 682,
      "👂": 683,
      "👃": 684,
      "👄": 685,
      "👅": 686,
      "👆": 687,
      "👇": 688,
      "👈": 689,
      "👉": 690,
      "👊": 691,
      "👋": 692,
      "👌": 693,
      "👍": 694,
      "👎": 695,
      "👏": 696,
      "👐": 697,
      "👑": 698,
      "👓": 699,
      "👕": 700,
      "👖": 701,
      "👗": 702,
      "👙": 703,
      "👛": 704,
      "👜": 705,
      "👠": 706,
      "👡": 707,
      "👣": 708,
      "👤": 709,
      "👥": 710,
      "👦": 711,
      "👧": 712,
      "👨": 713,
      "👩": 714,
      "👪": 715,
      "👫": 716,
      "👬": 717,
      "👭": 718,
      "👮": 719,
      "👯": 720,
      "👰": 721,
      "👱": 722,
      "👳": 723,
      "👴": 724,
      "👵": 725,
      "👶": 726,
      "👷": 727,
      "👸": 728,
      "👹": 729,
      "👺": 730,
      "👻": 731,
      "👼": 732,
      "👽": 733,
      "👿": 734,
      "💀": 735,
      "💁": 736,
      "💃": 737,
      "💄": 738,
      "💅": 739,
      "💆": 740,
      "💇": 741,
      "💉": 742,
      "💊": 743,
      "💋": 744,
      "💌": 745,
      "💍": 746,
      "💎": 747,
      "💏": 748,
      "💐": 749,
      "💑": 750,
      "💓": 751,
      "💔": 752,
      "💕": 753,
      "💖": 754,
      "💗": 755,
      "💘": 756,
      "💙": 757,
      "💚": 758,
      "💛": 759,
      "💜": 760,
      "💝": 761,
      "💞": 762,
      "💟": 763,
      "💠": 764,
      "💡": 765,
      "💢": 766,
      "💣": 767,
      "💤": 768,
      "💥": 769,
      "💦": 770,
      "💧": 771,
      "💨": 772,
      "💩": 773,
      "💪": 774,
      "💫": 775,
      "💬": 776,
      "💭": 777,
      "💮": 778,
      "💯": 779,
      "💰": 780,
      "💲": 781,
      "💴": 782,
      "💵": 783,
      "💶": 784,
      "💷": 785,
      "💸": 786,
      "💻": 787,
      "💼": 788,
      "📌": 789,
      "📍": 790,
      "📖": 791,
      "📚": 792,
      "📝": 793,
      "📞": 794,
      "📢": 795,
      "📣": 796,
      "📧": 797,
      "📨": 798,
      "📩": 799,
      "📱": 800,
      "📲": 801,
      "📷": 802,
      "📸": 803,
      "📹": 804,
      "📺": 805,
      "📻": 806,
      "📽": 807,
      "🔊": 808,
      "🔐": 809,
      "🔔": 810,
      "🔕": 811,
      "🔗": 812,
      "🔘": 813,
      "🔙": 814,
      "🔚": 815,
      "🔜": 816,
      "🔝": 817,
      "🔞": 818,
      "🔥": 819,
      "🔨": 820,
      "🔪": 821,
      "🔫": 822,
      "🔮": 823,
      "🔰": 824,
      "🔱": 825,
      "🔴": 826,
      "🔵": 827,
      "🔶": 828,
      "🔸": 829,
      "🔹": 830,
      "🕊": 831,
      "🕋": 832,
      "🕌": 833,
      "🕛": 834,
      "🕯": 835,
      "🕵": 836,
      "🕺": 837,
      "🖐": 838,
      "🖒": 839,
      "🖓": 840,
      "🖕": 841,
      "🖤": 842,
      "🖥": 843,
      "🗝": 844,
      "🗡": 845,
      "🗣": 846,
      "🗨": 847,
      "🗿": 848,
      "😀": 849,
      "😁": 850,
      "😂": 851,
      "😃": 852,
      "😄": 853,
      "😅": 854,
      "😆": 855,
      "😇": 856,
      "😈": 857,
      "😉": 858,
      "😊": 859,
      "😋": 860,
      "😌": 861,
      "😍": 862,
      "😎": 863,
      "😏": 864,
      "😐": 865,
      "😑": 866,
      "😒": 867,
      "😓": 868,
      "😔": 869,
      "😕": 870,
      "😖": 871,
      "😗": 872,
      "😘": 873,
      "😙": 874,
      "😚": 875,
      "😛": 876,
      "😜": 877,
      "😝": 878,
      "😞": 879,
      "😟": 880,
      "😠": 881,
      "😡": 882,
      "😢": 883,
      "😣": 884,
      "😤": 885,
      "😥": 886,
      "😦": 887,
      "😧": 888,
      "😨": 889,
      "😩": 890,
      "😪": 891,
      "😫": 892,
      "😬": 893,
      "😭": 894,
      "😮": 895,
      "😯": 896,
      "😰": 897,
      "😱": 898,
      "😲": 899,
      "😳": 900,
      "😴": 901,
      "😵": 902,
      "😶": 903,
      "😷": 904,
      "😸": 905,
      "😹": 906,
      "😺": 907,
      "😻": 908,
      "😼": 909,
      "😽": 910,
      "😾": 911,
      "😿": 912,
      "🙀": 913,
      "🙁": 914,
      "🙂": 915,
      "🙃": 916,
      "🙄": 917,
      "🙅": 918,
      "🙆": 919,
      "🙇": 920,
      "🙈": 921,
      "🙉": 922,
      "🙊": 923,
      "🙋": 924,
      "🙌": 925,
      "🙍": 926,
      "🙎": 927,
      "🙏": 928,
      "🚀": 929,
      "🚑": 930,
      "🚔": 931,
      "🚖": 932,
      "🚗": 933,
      "🚘": 934,
      "🚨": 935,
      "🚩": 936,
      "🚪": 937,
      "🚫": 938,
      "🚬": 939,
      "🚮": 940,
      "🚶": 941,
      "🚿": 942,
      "🛍": 943,
      "🛎": 944,
      "🛑": 945,
      "🛫": 946,
      "🤍": 947,
      "🤎": 948,
      "🤐": 949,
      "🤑": 950,
      "🤒": 951,
      "🤓": 952,
      "🤔": 953,
      "🤕": 954,
      "🤗": 955,
      "🤘": 956,
      "🤙": 957,
      "🤚": 958,
      "🤛": 959,
      "🤜": 960,
      "🤝": 961,
      "🤞": 962,
      "🤟": 963,
      "🤠": 964,
      "🤡": 965,
      "🤢": 966,
      "🤣": 967,
      "🤤": 968,
      "🤥": 969,
      "🤦": 970,
      "🤧": 971,
      "🤨": 972,
      "🤩": 973,
      "🤪": 974,
      "🤫": 975,
      "🤬": 976,
      "🤭": 977,
      "🤮": 978,
      "🤯": 979,
      "🤰": 980,
      "🤱": 981,
      "🤲": 982,
      "🤳": 983,
      "🤴": 984,
      "🤷": 985,
      "🤸": 986,
      "🥀": 987,
      "🥁": 988,
      "🥂": 989,
      "🥇": 990,
      "🥊": 991,
      "🥰": 992,
      "🥳": 993,
      "🥴": 994,
      "🥵": 995,
      "🥶": 996,
      "🥺": 997,
      "🦁": 998,
      "🦅": 999,
      "🦋": 1000,
      "🧏": 1001,
      "🧐": 1002,
      "🧕": 1003,
      "🧚": 1004,
      "🧠": 1005,
      "🧡": 1006,
      "##و": 1007,
      "##ن": 1008,
      "##ط": 1009,
      "##ت": 1010,
      "##ح": 1011,
      "##س": 1012,
      "##ا": 1013,
      "##م": 1014,
      "##ش": 1015,
      "##ك": 1016,
      "##ي": 1017,
      "##ى": 1018,
      "##ع": 1019,
      "##😁": 1020,
      "##😂": 1021,
      "##ر": 1022,
      "##د": 1023,
      "##ز": 1024,
      "##ب": 1025,
      "##ﺑ": 1026,
      "##ﻴ": 1027,
      "##ﻪ": 1028,
      "##ل": 1029,
      "##🤩": 1030,
      "##u": 1031,
      "##r": 1032,
      "##l": 1033,
      "##ص": 1034,
      "##0": 1035,
      "##9": 1036,
      "##1": 1037,
      "##2": 1038,
      "##5": 1039,
      "##3": 1040,
      "##7": 1041,
      "##i": 1042,
      "##d": 1043,
      "##خ": 1044,
      "##ة": 1045,
      "##ج": 1046,
      "##💇": 1047,
      "##💆": 1048,
      "##👸": 1049,
      "##⚘": 1050,
      "##ه": 1051,
      "##گ": 1052,
      "##ض": 1053,
      "##ی": 1054,
      "##ف": 1055,
      "##ق": 1056,
      "##o": 1057,
      "##a": 1058,
      "##c": 1059,
      "##h": 1060,
      "##n": 1061,
      "##غ": 1062,
      "##ھ": 1063,
      "##e": 1064,
      "##z": 1065,
      "##ث": 1066,
      "##🏃": 1067,
      "##ذ": 1068,
      "##🙃": 1069,
      "##😄": 1070,
      "##😏": 1071,
      "##👍": 1072,
      "##w": 1073,
      "##ظ": 1074,
      "##ڭ": 1075,
      "##b": 1076,
      "##t": 1077,
      "##🌚": 1078,
      "##🌹": 1079,
      "##ء": 1080,
      "##s": 1081,
      "##g": 1082,
      "##😠": 1083,
      "##x": 1084,
      "##ۆ": 1085,
      "##p": 1086,
      "##٢": 1087,
      "##٠": 1088,
      "##٤": 1089,
      "##😙": 1090,
      "##☜": 1091,
      "##f": 1092,
      "##4": 1093,
      "##ک": 1094,
      "##💼": 1095,
      "##ہ": 1096,
      "##ﺪ": 1097,
      "##ﺍ": 1098,
      "##ﺧ": 1099,
      "##ﻞ": 1100,
      "##ﺎ": 1101,
      "##ﺗ": 1102,
      "##ﺴ": 1103,
      "##ﻨ": 1104,
      "##ﻰ": 1105,
      "##چ": 1106,
      "##ݣ": 1107,
      "##😘": 1108,
      "##💋": 1109,
      "##❤": 1110,
      "##🤱": 1111,
      "##ﻟ": 1112,
      "##ﺸ": 1113,
      "##ﻔ": 1114,
      "##ﺭ": 1115,
      "##ﺓ": 1116,
      "##👈": 1117,
      "##😊": 1118,
      "##پ": 1119,
      "##🏻": 1120,
      "##🙂": 1121,
      "##ﺼ": 1122,
      "##ﻭ": 1123,
      "##😍": 1124,
      "##🥰": 1125,
      "##🙏": 1126,
      "##🤗": 1127,
      "##😅": 1128,
      "##ﻻ": 1129,
      "##👅": 1130,
      "##🤣": 1131,
      "##m": 1132,
      "##👌": 1133,
      "##👏": 1134,
      "##ﺤ": 1135,
      "##😭": 1136,
      "##😼": 1137,
      "##🤲": 1138,
      "##🇩": 1139,
      "##🇿": 1140,
      "##ﺘ": 1141,
      "##ﻮ": 1142,
      "##ﻑ": 1143,
      "##k": 1144,
      "##😜": 1145,
      "##💛": 1146,
      "##v": 1147,
      "##😌": 1148,
      "##🔱": 1149,
      "##💑": 1150,
      "##ﻠ": 1151,
      "##ﻢ": 1152,
      "##😒": 1153,
      "##ڤ": 1154,
      "##y": 1155,
      "##😗": 1156,
      "##😕": 1157,
      "##😉": 1158,
      "##8": 1159,
      "##6": 1160,
      "##😇": 1161,
      "##💸": 1162,
      "##💲": 1163,
      "##💰": 1164,
      "##💪": 1165,
      "##☺": 1166,
      "##ﻡ": 1167,
      "##ۃ": 1168,
      "##💐": 1169,
      "##✌": 1170,
      "##👊": 1171,
      "##🤦": 1172,
      "##♂": 1173,
      "##🌅": 1174,
      "##🤭": 1175,
      "##❣": 1176,
      "##🌷": 1177,
      "##👆": 1178,
      "##🇦": 1179,
      "##🇲": 1180,
      "##☝": 1181,
      "##ﻳ": 1182,
      "##ﻲ": 1183,
      "##😡": 1184,
      "##👇": 1185,
      "##💕": 1186,
      "##👋": 1187,
      "##😬": 1188,
      "##ﻙ": 1189,
      "##♥": 1190,
      "##🤨": 1191,
      "##💖": 1192,
      "##✔": 1193,
      "##ﺞ": 1194,
      "##🎩": 1195,
      "##ﻤ": 1196,
      "##ﺳ": 1197,
      "##ﺨ": 1198,
      "##ﻦ": 1199,
      "##ﻷ": 1200,
      "##😴": 1201,
      "##💯": 1202,
      "##😔": 1203,
      "##😛": 1204,
      "##🍂": 1205,
      "##😎": 1206,
      "##ﻈ": 1207,
      "##ﻣ": 1208,
      "##💔": 1209,
      "##😖": 1210,
      "##✊": 1211,
      "##😻": 1212,
      "##💞": 1213,
      "##😃": 1214,
      "##😚": 1215,
      "##🙅": 1216,
      "##👄": 1217,
      "##🙌": 1218,
      "##💚": 1219,
      "##ﺖ": 1220,
      "##💗": 1221,
      "##ﺮ": 1222,
      "##ﺣ": 1223,
      "##ﺔ": 1224,
      "##🤔": 1225,
      "##ﻌ": 1226,
      "##🔥": 1227,
      "##🐣": 1228,
      "##🚀": 1229,
      "##👬": 1230,
      "##🤧": 1231,
      "##ﺰ": 1232,
      "##😝": 1233,
      "##ﺏ": 1234,
      "##😤": 1235,
      "##😱": 1236,
      "##😷": 1237,
      "##🌺": 1238,
      "##😑": 1239,
      "##💝": 1240,
      "##😋": 1241,
      "##💎": 1242,
      "##🎶": 1243,
      "##🎵": 1244,
      "##😢": 1245,
      "##🏼": 1246,
      "##♀": 1247,
      "##😪": 1248,
      "##ﻧ": 1249,
      "##ﺲ": 1250,
      "##ﻯ": 1251,
      "##ﻄ": 1252,
      "##ﺐ": 1253,
      "##🏆": 1254,
      "##ﺻ": 1255,
      "##🤑": 1256,
      "##😥": 1257,
      "##ﻼ": 1258,
      "##ﻫ": 1259,
      "##😓": 1260,
      "##🇴": 1261,
      "##😰": 1262,
      "##🤫": 1263,
      "##ڑ": 1264,
      "##🖤": 1265,
      "##ﻓ": 1266,
      "##♡": 1267,
      "##🥺": 1268,
      "##👎": 1269,
      "##ﺒ": 1270,
      "##ﻜ": 1271,
      "##ﺶ": 1272,
      "##🐀": 1273,
      "##💜": 1274,
      "##ﻬ": 1275,
      "##✍": 1276,
      "##ﻘ": 1277,
      "##ﺱ": 1278,
      "##ﺟ": 1279,
      "##🇸": 1280,
      "##🇪": 1281,
      "##ﻗ": 1282,
      "##ﻒ": 1283,
      "##✨": 1284,
      "##j": 1285,
      "##🇮": 1286,
      "##🇶": 1287,
      "##⚠": 1288,
      "##ᅡ": 1289,
      "##ᄋ": 1290,
      "##ᅵ": 1291,
      "##ᆫ": 1292,
      "##😹": 1293,
      "##🤥": 1294,
      "##ګ": 1295,
      "##✋": 1296,
      "##🎓": 1297,
      "##ﺵ": 1298,
      "##ﻛ": 1299,
      "##⭐": 1300,
      "##🚶": 1301,
      "##💙": 1302,
      "##🦋": 1303,
      "##🌲": 1304,
      "##ﻖ": 1305,
      "##😈": 1306,
      "##🏽": 1307,
      "##ے": 1308,
      "##😳": 1309,
      "##😧": 1310,
      "##👨": 1311,
      "##👩": 1312,
      "##👧": 1313,
      "##ﺷ": 1314,
      "##❎": 1315,
      "##🐏": 1316,
      "##🔴": 1317,
      "##😆": 1318,
      "##🙄": 1319,
      "##ﯽ": 1320,
      "##ﻋ": 1321,
      "##😀": 1322,
      "##👮": 1323,
      "##😩": 1324,
      "##ﻚ": 1325,
      "##🖕": 1326,
      "##🙆": 1327,
      "##🌼": 1328,
      "##🔸": 1329,
      "##🌸": 1330,
      "##🌃": 1331,
      "##ﯕ": 1332,
      "##💓": 1333,
      "##🌾": 1334,
      "##😣": 1335,
      "##ﻉ": 1336,
      "##🤷": 1337,
      "##ە": 1338,
      "##😨": 1339,
      "##🍃": 1340,
      "##🤜": 1341,
      "##🥇": 1342,
      "##☻": 1343,
      "##ﺋ": 1344,
      "##🍹": 1345,
      "##٩": 1346,
      "##⤵": 1347,
      "##🙋": 1348,
      "##👉": 1349,
      "##€": 1350,
      "##ڨ": 1351,
      "##ﺕ": 1352,
      "##🌞": 1353,
      "##🔪": 1354,
      "##👗": 1355,
      "##👠": 1356,
      "##👐": 1357,
      "##ﺩ": 1358,
      "##😯": 1359,
      "##👀": 1360,
      "##🤍": 1361,
      "##🕊": 1362,
      "##ڢ": 1363,
      "##☹": 1364,
      "##ٹ": 1365,
      "##👃": 1366,
      "##q": 1367,
      "##🖒": 1368,
      "##🌈": 1369,
      "##🥴": 1370,
      "##🎈": 1371,
      "##🌝": 1372,
      "##🧐": 1373,
      "##🐸": 1374,
      "##○": 1375,
      "##✅": 1376,
      "##ﻹ": 1377,
      "##ں": 1378,
      "##🐍": 1379,
      "##💥": 1380,
      "##🧡": 1381,
      "##🌟": 1382,
      "##😶": 1383,
      "##ﺯ": 1384,
      "##ﻏ": 1385,
      "##×": 1386,
      "##😲": 1387,
      "##ﺝ": 1388,
      "##😐": 1389,
      "##🤘": 1390,
      "##🇧": 1391,
      "##🇷": 1392,
      "##🌠": 1393,
      "##😫": 1394,
      "##म": 1395,
      "##💢": 1396,
      "##🐦": 1397,
      "##🎉": 1398,
      "##🤓": 1399,
      "##🌳": 1400,
      "##🥀": 1401,
      "##🖐": 1402,
      "##🎂": 1403,
      "##🎊": 1404,
      "##ٱ": 1405,
      "##💘": 1406,
      "##🇬": 1407,
      "##👑": 1408,
      "##❄": 1409,
      "##🤬": 1410,
      "##🌌": 1411,
      "##🎆": 1412,
      "##🎇": 1413,
      "##🎁": 1414,
      "##🎀": 1415,
      "##ι": 1416,
      "##α": 1417,
      "##🚩": 1418,
      "##🌜": 1419,
      "##🌛": 1420,
      "##ڈ": 1421,
      "##💏": 1422,
      "##ﻱ": 1423,
      "##⚡": 1424,
      "##❀": 1425,
      "##۰": 1426,
      "##۱": 1427,
      "##۸": 1428,
      "##😞": 1429,
      "##💃": 1430,
      "##ﻐ": 1431,
      "##ړ": 1432,
      "##🏵": 1433,
      "##🍏": 1434,
      "##👽": 1435,
      "##💵": 1436,
      "##ﻃ": 1437,
      "##٥": 1438,
      "##ﻩ": 1439,
      "##🏾": 1440,
      "##🚬": 1441,
      "##🔫": 1442,
      "##💁": 1443,
      "##📢": 1444,
      "##🙈": 1445,
      "##🥊": 1446,
      "##🐕": 1447,
      "##🙊": 1448,
      "##ێ": 1449,
      "##ﯿ": 1450,
      "##🥂": 1451,
      "##ﻝ": 1452,
      "##🇺": 1453,
      "##🇳": 1454,
      "##ı": 1455,
      "##ⵙ": 1456,
      "##ⵏ": 1457,
      "##🕋": 1458,
      "##💀": 1459,
      "##ﺠ": 1460,
      "##▪": 1461,
      "##😿": 1462,
      "##ﻕ": 1463,
      "##🤮": 1464,
      "##💤": 1465,
      "##🤟": 1466,
      "##🔔": 1467,
      "##ﯾ": 1468,
      "##🎯": 1469,
      "##°": 1470,
      "##🥳": 1471,
      "##💩": 1472,
      "##💻": 1473,
      "##🔹": 1474,
      "##ﺃ": 1475,
      "##☆": 1476,
      "##🇵": 1477,
      "##ﺬ": 1478,
      "##🍀": 1479,
      "##🗿": 1480,
      "##🤕": 1481,
      "##👿": 1482,
      "##ﺆ": 1483,
      "##🏳": 1484,
      "##🍒": 1485,
      "##🍷": 1486,
      "##￼": 1487,
      "##👦": 1488,
      "##ﺜ": 1489,
      "##🌀": 1490,
      "##👰": 1491,
      "##👹": 1492,
      "##🍁": 1493,
      "##🍩": 1494,
      "##🍬": 1495,
      "##🍰": 1496,
      "##🛑": 1497,
      "##🤛": 1498,
      "##ﻥ": 1499,
      "##🤠": 1500,
      "##👻": 1501,
      "##☠": 1502,
      "##ژ": 1503,
      "##💦": 1504,
      "##🤪": 1505,
      "##ל": 1506,
      "##ו": 1507,
      "##ם": 1508,
      "##🔞": 1509,
      "##٦": 1510,
      "##ٸ": 1511,
      "##▶": 1512,
      "##ﭘ": 1513,
      "##✈": 1514,
      "##🐯": 1515,
      "##ﻊ": 1516,
      "##ﺂ": 1517,
      "##ﷲ": 1518,
      "##👥": 1519,
      "##⚽": 1520,
      "##🧕": 1521,
      "##🌻": 1522,
      "##❗": 1523,
      "##😮": 1524,
      "##◀": 1525,
      "##¤": 1526,
      "##😸": 1527,
      "##🌱": 1528,
      "##👱": 1529,
      "##👤": 1530,
      "##👕": 1531,
      "##ﻀ": 1532,
      "##💄": 1533,
      "##👵": 1534,
      "##🇱": 1535,
      "##🇾": 1536,
      "##١": 1537,
      "##🇨": 1538,
      "##🤐": 1539,
      "##😦": 1540,
      "##👪": 1541,
      "##💍": 1542,
      "##🐒": 1543,
      "##💟": 1544,
      "##ڪ": 1545,
      "##💣": 1546,
      "##🇰": 1547,
      "##🇼": 1548,
      "##🇭": 1549,
      "##🇫": 1550,
      "##٧": 1551,
      "##٣": 1552,
      "##❌": 1553,
      "##🐈": 1554,
      "##ø": 1555,
      "##🌿": 1556,
      "##🍭": 1557,
      "##🎄": 1558,
      "##☘": 1559,
      "##👖": 1560,
      "##👜": 1561,
      "##●": 1562,
      "##💡": 1563,
      "##📚": 1564,
      "##🇹": 1565,
      "##💠": 1566,
      "##🦅": 1567,
      "##😟": 1568,
      "##🔝": 1569,
      "##ב": 1570,
      "##י": 1571,
      "##☕": 1572,
      "##🤯": 1573,
      "##🐴": 1574,
      "##🌊": 1575,
      "##🤚": 1576,
      "##😺": 1577,
      "##🥁": 1578,
      "##🍟": 1579,
      "##🍔": 1580,
      "##🍫": 1581,
      "##🙍": 1582,
      "##💫": 1583,
      "##٨": 1584,
      "##🙁": 1585,
      "##ﮯ": 1586,
      "##🏁": 1587,
      "##🏴": 1588,
      "##ﺡ": 1589,
      "##м": 1590,
      "##е": 1591,
      "##р": 1592,
      "##т": 1593,
      "##и": 1594,
      "##↔": 1595,
      "##😵": 1596,
      "##⬅": 1597,
      "##🌍": 1598,
      "##🤢": 1599,
      "##🎤": 1600,
      "##🎧": 1601,
      "##🎹": 1602,
      "##🎸": 1603,
      "##💌": 1604,
      "##🤒": 1605,
      "##👶": 1606,
      "##🎼": 1607,
      "##☔": 1608,
      "##🌔": 1609,
      "##🤝": 1610,
      "##🌏": 1611,
      "##🐝": 1612,
      "##🍻": 1613,
      "##🐑": 1614,
      "##💮": 1615,
      "##🐱": 1616,
      "##⬇": 1617,
      "##ڕ": 1618,
      "##ﻂ": 1619,
      "##🍪": 1620,
      "##ﺿ": 1621,
      "##🍊": 1622,
      "##⛔": 1623,
      "##🙇": 1624,
      "##✿": 1625,
      "##🌋": 1626,
      "##🐶": 1627,
      "##🇯": 1628,
      "##۶": 1629,
      "##🏊": 1630,
      "##☀": 1631,
      "##👁": 1632,
      "##ڜ": 1633,
      "##ﺄ": 1634,
      "##🌐": 1635,
      "##🍎": 1636,
      "##👂": 1637,
      "##ﻵ": 1638,
      "##📱": 1639,
      "##🏿": 1640,
      "##👫": 1641,
      "##🚘": 1642,
      "##🚗": 1643,
      "##🚿": 1644,
      "##🐰": 1645,
      "##🐥": 1646,
      "##🦁": 1647,
      "##🕵": 1648,
      "##ⴰ": 1649,
      "##🌙": 1650,
      "##👷": 1651,
      "##र": 1652,
      "##ा": 1653,
      "##🎻": 1654,
      "##🤙": 1655,
      "##🎮": 1656,
      "##🤸": 1657,
      "##🌧": 1658,
      "##⛈": 1659,
      "##💨": 1660,
      "##🍖": 1661,
      "##🌪": 1662,
      "##🚨": 1663,
      "##ې": 1664,
      "##🙎": 1665,
      "##🐩": 1666,
      "##📩": 1667,
      "##⏪": 1668,
      "##📣": 1669,
      "##❓": 1670,
      "##ﺹ": 1671,
      "##🏠": 1672,
      "##★": 1673,
      "##🤤": 1674,
      "##🔮": 1675,
      "##✴": 1676,
      "##🚪": 1677,
      "##👭": 1678,
      "##🎭": 1679,
      "##👣": 1680,
      "##🌑": 1681,
      "##🚮": 1682,
      "##📌": 1683,
      "##🤎": 1684,
      "##🚫": 1685,
      "##ﺾ": 1686,
      "##🐵": 1687,
      "##🕌": 1688,
      "##ᄉ": 1689,
      "##ᅩ": 1690,
      "##▫": 1691,
      "##🤞": 1692,
      "##ﺀ": 1693,
      "##🌴": 1694,
      "##💧": 1695,
      "##💉": 1696,
      "##ﻁ": 1697,
      "##⚪": 1698,
      "##ﺢ": 1699,
      "##♣": 1700,
      "##👺": 1701,
      "##🔐": 1702,
      "##📍": 1703,
      "##ﺫ": 1704,
      "##प": 1705,
      "##य": 1706,
      "##🔊": 1707,
      "##ڵ": 1708,
      "##⃣": 1709,
      "##🔰": 1710,
      "##🧠": 1711,
      "##↓": 1712,
      "##🐺": 1713,
      "##♤": 1714,
      "##🎙": 1715,
      "##🍉": 1716,
      "##➖": 1717,
      "##ﷺ": 1718,
      "##🏩": 1719,
      "##🤰": 1720,
      "##◇": 1721,
      "##🍋": 1722,
      "##🥵": 1723,
      "##🎬": 1724,
      "##🌶": 1725,
      "##👳": 1726,
      "##📲": 1727,
      "##📞": 1728,
      "##💬": 1729,
      "##🔙": 1730,
      "##📝": 1731,
      "##🍾": 1732,
      "##🍞": 1733,
      "##👓": 1734,
      "##💴": 1735,
      "##♓": 1736,
      "##о": 1737,
      "##♦": 1738,
      "##🎥": 1739,
      "##📷": 1740,
      "##📺": 1741,
      "##✖": 1742,
      "##👼": 1743,
      "##🍵": 1744,
      "##👙": 1745,
      "##🏄": 1746,
      "##🍕": 1747,
      "##⏳": 1748,
      "##ﺺ": 1749,
      "##🙉": 1750,
      "##л": 1751,
      "##н": 1752,
      "##а": 1753,
      "##🍼": 1754,
      "##🍌": 1755,
      "##🕺": 1756,
      "##↩": 1757,
      "##🏡": 1758,
      "##🗣": 1759,
      "##👴": 1760,
      "##📽": 1761,
      "##💶": 1762,
      "##🍲": 1763,
      "##ٲ": 1764,
      "##🗝": 1765,
      "##💅": 1766,
      "##в": 1767,
      "##ь": 1768,
      "##⏰": 1769,
      "##🗡": 1770,
      "##🚑": 1771,
      "##🔵": 1772,
      "##🍳": 1773,
      "##🐫": 1774,
      "##🚔": 1775,
      "##ﺁ": 1776,
      "##🧚": 1777,
      "##☑": 1778,
      "##ﺽ": 1779,
      "##🍸": 1780,
      "##シ": 1781,
      "##🍆": 1782,
      "##♧": 1783,
      "##😽": 1784,
      "##🌆": 1785,
      "##ﮧ": 1786,
      "##☁": 1787,
      "##🍓": 1788,
      "##🍯": 1789,
      "##🅰": 1790,
      "##⛅": 1791,
      "##✓": 1792,
      "##ﺌ": 1793,
      "##↗": 1794,
      "##🍺": 1795,
      "##🔜": 1796,
      "##ﮐ": 1797,
      "##🎗": 1798,
      "##🎖": 1799,
      "##®": 1800,
      "##🐇": 1801,
      "##↖": 1802,
      "##🛫": 1803,
      "##💭": 1804,
      "##🍗": 1805,
      "##ﺛ": 1806,
      "##⚫": 1807,
      "##⠀": 1808,
      "##क": 1809,
      "##द": 1810,
      "##ी": 1811,
      "##🛍": 1812,
      "##✏": 1813,
      "##¥": 1814,
      "##ಠ": 1815,
      "##⚜": 1816,
      "##۽": 1817,
      "##📖": 1818,
      "##😾": 1819,
      "##🐓": 1820,
      "##🐐": 1821,
      "##🐜": 1822,
      "##🙀": 1823,
      "##🍇": 1824,
      "##⭕": 1825,
      "##ღ": 1826,
      "##ﺦ": 1827,
      "##ﺇ": 1828,
      "##🌎": 1829,
      "##♠": 1830,
      "##ᆷ": 1831,
      "##ⵉ": 1832,
      "##🤡": 1833,
      "##📹": 1834,
      "##⛄": 1835,
      "##🗨": 1836,
      "##☎": 1837,
      "##⌚": 1838,
      "##🔚": 1839,
      "##📸": 1840,
      "##д": 1841,
      "##🤳": 1842,
      "##💊": 1843,
      "##↪": 1844,
      "##🔨": 1845,
      "##♪": 1846,
      "##←": 1847,
      "##📨": 1848,
      "##۲": 1849,
      "##۵": 1850,
      "##🔕": 1851,
      "##🏅": 1852,
      "##£": 1853,
      "##⌛": 1854,
      "##↙": 1855,
      "##🔗": 1856,
      "##ʼ": 1857,
      "##√": 1858,
      "##🐔": 1859,
      "##🍴": 1860,
      "##ß": 1861,
      "##🌕": 1862,
      "##🍑": 1863,
      "##🎃": 1864,
      "##🎅": 1865,
      "##🛎": 1866,
      "##ڥ": 1867,
      "##ﮔ": 1868,
      "##œ": 1869,
      "##🔘": 1870,
      "##п": 1871,
      "##✧": 1872,
      "##💷": 1873,
      "##👛": 1874,
      "##🏮": 1875,
      "##♫": 1876,
      "##♨": 1877,
      "##◾": 1878,
      "##🐟": 1879,
      "##✉": 1880,
      "##🤴": 1881,
      "##त": 1882,
      "##ि": 1883,
      "##🔶": 1884,
      "##❇": 1885,
      "##♔": 1886,
      "##ٽ": 1887,
      "##📻": 1888,
      "##✒": 1889,
      "##ﮭ": 1890,
      "##🕯": 1891,
      "##👯": 1892,
      "##ﺊ": 1893,
      "##ﮟ": 1894,
      "##➡": 1895,
      "##đ": 1896,
      "##■": 1897,
      "##с": 1898,
      "##🏥": 1899,
      "##👡": 1900,
      "##🕛": 1901,
      "##♻": 1902,
      "##🐪": 1903,
      "##🏋": 1904,
      "##🍅": 1905,
      "##🌄": 1906,
      "##🖓": 1907,
      "##📧": 1908,
      "##©": 1909,
      "##۴": 1910,
      "##🥶": 1911,
      "##🌤": 1912,
      "##━": 1913,
      "##┻": 1914,
      "##🐄": 1915,
      "##🌇": 1916,
      "##🆕": 1917,
      "##🐼": 1918,
      "##ツ": 1919,
      "##🎋": 1920,
      "##➿": 1921,
      "##ㅤ": 1922,
      "##ﺚ": 1923,
      "##ᄐ": 1924,
      "##ﷴ": 1925,
      "##۳": 1926,
      "##❶": 1927,
      "##🚖": 1928,
      "##⇦": 1929,
      "##🖥": 1930,
      "##⬆": 1931,
      "##ۦ": 1932,
      "##ᅣ": 1933,
      "##ﭨ": 1934,
      "##ﷻ": 1935,
      "##♚": 1936,
      "##ﮈ": 1937,
      "##🧏": 1938,
      "##ᄏ": 1939,
      "##ﮨ": 1940,
      "##ह": 1941,
      "##┛": 1942,
      "ال": 1943,
      "##ها": 1944,
      "##ال": 1945,
      "##ات": 1946,
      "##ين": 1947,
      "##ان": 1948,
      "##لي": 1949,
      "##ار": 1950,
      "لي": 1951,
      "##ير": 1952,
      "##اد": 1953,
      "##نا": 1954,
      "من": 1955,
      "##لا": 1956,
      "##اب": 1957,
      "في": 1958,
      "##اي": 1959,
      "##تي": 1960,
      "##اك": 1961,
      "##ام": 1962,
      "##اس": 1963,
      "دي": 1964,
      "##دي": 1965,
      "##اش": 1966,
      "##هم": 1967,
      "##ون": 1968,
      "##er": 1969,
      "##ser": 1970,
      "user": 1971,
      "##اف": 1972,
      "##لى": 1973,
      "مع": 1974,
      "ديال": 1975,
      "##بي": 1976,
      "##ري": 1977,
      "كي": 1978,
      "الم": 1979,
      "على": 1980,
      "##ول": 1981,
      "##شي": 1982,
      "اله": 1983,
      "علي": 1984,
      "##ية": 1985,
      "##اح": 1986,
      "##اه": 1987,
      "##يت": 1988,
      "كت": 1989,
      "##ور": 1990,
      "##ما": 1991,
      "##ند": 1992,
      "##رج": 1993,
      "##وف": 1994,
      "##اج": 1995,
      "انا": 1996,
      "ان": 1997,
      "وال": 1998,
      "هاد": 1999,
      "##او": 2000,
      "##يا": 2001,
      "##اع": 2002,
      "##رب": 2003,
      "##يد": 2004,
      "##لو": 2005,
      "##تو": 2006,
      "##ني": 2007,
      "كان": 2008,
      "حت": 2009,
      "الح": 2010,
      "##رو": 2011,
      "بال": 2012,
      "##اخ": 2013,
      "##يني": 2014,
      "##رة": 2015,
      "##رف": 2016,
      "##كن": 2017,
      "##كم": 2018,
      "الع": 2019,
      "##اق": 2020,
      "غير": 2021,
      "##دو": 2022,
      "شي": 2023,
      "##مة": 2024,
      "فال": 2025,
      "عند": 2026,
      "##لة": 2027,
      "##اء": 2028,
      "ما": 2029,
      "لا": 2030,
      "##شوف": 2031,
      "الي": 2032,
      "الب": 2033,
      "حتى": 2034,
      "ول": 2035,
      "كن": 2036,
      "اخ": 2037,
      "##مو": 2038,
      "هو": 2039,
      "##كر": 2040,
      "##ابا": 2041,
      "##مع": 2042,
      "##كون": 2043,
      "كل": 2044,
      "هي": 2045,
      "##بة": 2046,
      "##دا": 2047,
      "او": 2048,
      "##حال": 2049,
      "راس": 2050,
      "##سي": 2051,
      "##وق": 2052,
      "##هو": 2053,
      "##زي": 2054,
      "##تها": 2055,
      "##كي": 2056,
      "##خل": 2057,
      "بع": 2058,
      "وق": 2059,
      "##نو": 2060,
      "##مي": 2061,
      "##جي": 2062,
      "##دة": 2063,
      "##ست": 2064,
      "##لب": 2065,
      "اي": 2066,
      "الف": 2067,
      "دابا": 2068,
      "##در": 2069,
      "##احد": 2070,
      "بغ": 2071,
      "بي": 2072,
      "##رح": 2073,
      "##ادي": 2074,
      "##وج": 2075,
      "##رك": 2076,
      "ام": 2077,
      "فيها": 2078,
      "مش": 2079,
      "وت": 2080,
      "فيه": 2081,
      "الس": 2082,
      "وم": 2083,
      "ولا": 2084,
      "اش": 2085,
      "مت": 2086,
      "##لع": 2087,
      "ليها": 2088,
      "##rl": 2089,
      "##اص": 2090,
      "##وت": 2091,
      "##قة": 2092,
      "باش": 2093,
      "تح": 2094,
      "url": 2095,
      "لب": 2096,
      "##ينا": 2097,
      "##كت": 2098,
      "##قات": 2099,
      "##را": 2100,
      "##كل": 2101,
      "بن": 2102,
      "##ينة": 2103,
      "##دات": 2104,
      "بز": 2105,
      "راه": 2106,
      "وج": 2107,
      "##طي": 2108,
      "تب": 2109,
      "اح": 2110,
      "واحد": 2111,
      "##قو": 2112,
      "##بو": 2113,
      "##اني": 2114,
      "داك": 2115,
      "##لات": 2116,
      "##هي": 2117,
      "##مر": 2118,
      "واخ": 2119,
      "تع": 2120,
      "وح": 2121,
      "نت": 2122,
      "وي": 2123,
      "##افي": 2124,
      "ليه": 2125,
      "##تك": 2126,
      "##اها": 2127,
      "شاف": 2128,
      "الق": 2129,
      "##لم": 2130,
      "رج": 2131,
      "##في": 2132,
      "علا": 2133,
      "الد": 2134,
      "##غي": 2135,
      "##حك": 2136,
      "##اط": 2137,
      "ماش": 2138,
      "الج": 2139,
      "الص": 2140,
      "##بر": 2141,
      "الخ": 2142,
      "##وم": 2143,
      "عن": 2144,
      "واش": 2145,
      "اس": 2146,
      "##دير": 2147,
      "##لام": 2148,
      "وب": 2149,
      "الش": 2150,
      "##عة": 2151,
      "ليك": 2152,
      "عليك": 2153,
      "##زيان": 2154,
      "الت": 2155,
      "عيني": 2156,
      "عليها": 2157,
      "##قي": 2158,
      "##اين": 2159,
      "ون": 2160,
      "بزاف": 2161,
      "لع": 2162,
      "##قول": 2163,
      "مزيان": 2164,
      "لم": 2165,
      "واخا": 2166,
      "##اجة": 2167,
      "بحال": 2168,
      "اب": 2169,
      "##عي": 2170,
      "مح": 2171,
      "##يرة": 2172,
      "##لك": 2173,
      "##وية": 2174,
      "##طو": 2175,
      "دار": 2176,
      "ليا": 2177,
      "عليه": 2178,
      "ماشي": 2179,
      "##ta": 2180,
      "##وا": 2181,
      "##as": 2182,
      "مس": 2183,
      "##بل": 2184,
      "كيف": 2185,
      "##قا": 2186,
      "الو": 2187,
      "##الي": 2188,
      "غادي": 2189,
      "يع": 2190,
      "الك": 2191,
      "كاي": 2192,
      "كانت": 2193,
      "وع": 2194,
      "##دام": 2195,
      "##مشي": 2196,
      "وص": 2197,
      "##ash": 2198,
      "بلا": 2199,
      "##هد": 2200,
      "خرج": 2201,
      "##tag": 2202,
      "##اض": 2203,
      "##ashtag": 2204,
      "كات": 2205,
      "##از": 2206,
      "زو": 2207,
      "##وس": 2208,
      "مب": 2209,
      "##فة": 2210,
      "غي": 2211,
      "##مد": 2212,
      "تن": 2213,
      "##لت": 2214,
      "##خرج": 2215,
      "شنو": 2216,
      "##ضر": 2217,
      "##من": 2218,
      "مر": 2219,
      "##وي": 2220,
      "##اتو": 2221,
      "ولكن": 2222,
      "تي": 2223,
      "##لق": 2224,
      "حس": 2225,
      "واله": 2226,
      "##اري": 2227,
      "مي": 2228,
      "بص": 2229,
      "نع": 2230,
      "##فس": 2231,
      "تق": 2232,
      "مك": 2233,
      "الا": 2234,
      "##تس": 2235,
      "علاش": 2236,
      "هز": 2237,
      "يدي": 2238,
      "##عو": 2239,
      "##وح": 2240,
      "##ربي": 2241,
      "##جب": 2242,
      "تف": 2243,
      "الن": 2244,
      "##دها": 2245,
      "لح": 2246,
      "##رها": 2247,
      "يا": 2248,
      "hashtag": 2249,
      "فين": 2250,
      "دخل": 2251,
      "##ارة": 2252,
      "##خلي": 2253,
      "##انا": 2254,
      "داكشي": 2255,
      "##دم": 2256,
      "حيت": 2257,
      "##وك": 2258,
      "با": 2259,
      "حاجة": 2260,
      "لك": 2261,
      "##حة": 2262,
      "اه": 2263,
      "##ولي": 2264,
      "مات": 2265,
      "سي": 2266,
      "راسها": 2267,
      "##وني": 2268,
      "##حي": 2269,
      "##سة": 2270,
      "قال": 2271,
      "##با": 2272,
      "لق": 2273,
      "تا": 2274,
      "الط": 2275,
      "بر": 2276,
      "##ذا": 2277,
      "وس": 2278,
      "بعد": 2279,
      "##لها": 2280,
      "##ارك": 2281,
      "##هاد": 2282,
      "##ضحك": 2283,
      "##تش": 2284,
      "##اير": 2285,
      "##ويا": 2286,
      "شف": 2287,
      "بين": 2288,
      "ود": 2289,
      "اختي": 2290,
      "##نات": 2291,
      "مغ": 2292,
      "نو": 2293,
      "نتي": 2294,
      "##هار": 2295,
      "كنت": 2296,
      "هنا": 2297,
      "##الة": 2298,
      "والو": 2299,
      "ري": 2300,
      "عاد": 2301,
      "##تح": 2302,
      "وش": 2303,
      "##بع": 2304,
      "##مان": 2305,
      "وهو": 2306,
      "##نت": 2307,
      "المغ": 2308,
      "##اتها": 2309,
      "مز": 2310,
      "يح": 2311,
      "بس": 2312,
      "انت": 2313,
      "فر": 2314,
      "##لس": 2315,
      "تس": 2316,
      "##تر": 2317,
      "عينيها": 2318,
      "در": 2319,
      "هادي": 2320,
      "##ضي": 2321,
      "خاص": 2322,
      "شوية": 2323,
      "مق": 2324,
      "بغيت": 2325,
      "##ناس": 2326,
      "عم": 2327,
      "وهي": 2328,
      "##وز": 2329,
      "##فر": 2330,
      "##ايا": 2331,
      "##ارف": 2332,
      "اص": 2333,
      "لكن": 2334,
      "##ديو": 2335,
      "##ود": 2336,
      "وقف": 2337,
      "مال": 2338,
      "ربي": 2339,
      "معاك": 2340,
      "شع": 2341,
      "الى": 2342,
      "هادشي": 2343,
      "حد": 2344,
      "##امل": 2345,
      "صافي": 2346,
      "سم": 2347,
      "اع": 2348,
      "##طة": 2349,
      "الغ": 2350,
      "مرة": 2351,
      "نس": 2352,
      "عندي": 2353,
      "ور": 2354,
      "بق": 2355,
      "طلع": 2356,
      "بش": 2357,
      "##وش": 2358,
      "##نة": 2359,
      "فوق": 2360,
      "الز": 2361,
      "بد": 2362,
      "##مل": 2363,
      "الر": 2364,
      "##مال": 2365,
      "له": 2366,
      "يت": 2367,
      "##بط": 2368,
      "##بق": 2369,
      "##يري": 2370,
      "ملي": 2371,
      "قدام": 2372,
      "ات": 2373,
      "معاه": 2374,
      "نز": 2375,
      "عليا": 2376,
      "وخ": 2377,
      "وك": 2378,
      "ها": 2379,
      "##رجع": 2380,
      "حتا": 2381,
      "عي": 2382,
      "رجع": 2383,
      "مو": 2384,
      "##عد": 2385,
      "عندو": 2386,
      "لد": 2387,
      "راسو": 2388,
      "اك": 2389,
      "نتا": 2390,
      "##شة": 2391,
      "فع": 2392,
      "تص": 2393,
      "##نان": 2394,
      "حط": 2395,
      "جي": 2396,
      "واق": 2397,
      "وف": 2398,
      "##مات": 2399,
      "ماع": 2400,
      "##هر": 2401,
      "##صة": 2402,
      "كاين": 2403,
      "ماك": 2404,
      "كلشي": 2405,
      "##بد": 2406,
      "فاش": 2407,
      "##مها": 2408,
      "##سن": 2409,
      "لو": 2410,
      "##اتي": 2411,
      "يس": 2412,
      "مخ": 2413,
      "هد": 2414,
      "مج": 2415,
      "بل": 2416,
      "بلي": 2417,
      "##امة": 2418,
      "##ادة": 2419,
      "قبل": 2420,
      "##فو": 2421,
      "ديك": 2422,
      "##ثر": 2423,
      "##شو": 2424,
      "شافت": 2425,
      "##ريق": 2426,
      "حي": 2427,
      "عرف": 2428,
      "قلب": 2429,
      "ولي": 2430,
      "##سو": 2431,
      "تخ": 2432,
      "يار": 2433,
      "مام": 2434,
      "##عرف": 2435,
      "##بغي": 2436,
      "##اهم": 2437,
      "زوينة": 2438,
      "باس": 2439,
      "اخر": 2440,
      "تش": 2441,
      "وه": 2442,
      "تو": 2443,
      "##بيب": 2444,
      "مكن": 2445,
      "##ورة": 2446,
      "تم": 2447,
      "شحال": 2448,
      "ياك": 2449,
      "شكون": 2450,
      "اما": 2451,
      "ديالو": 2452,
      "وقال": 2453,
      "##انت": 2454,
      "مص": 2455,
      "##الم": 2456,
      "ياس": 2457,
      "معاها": 2458,
      "##خص": 2459,
      "عندها": 2460,
      "##كرا": 2461,
      "اول": 2462,
      "ماب": 2463,
      "نهار": 2464,
      "عاي": 2465,
      "شوف": 2466,
      "باق": 2467,
      "##بها": 2468,
      "نق": 2469,
      "عندك": 2470,
      "الناس": 2471,
      "##واي": 2472,
      "سمع": 2473,
      "##وه": 2474,
      "##زة": 2475,
      "كون": 2476,
      "##ولة": 2477,
      "بح": 2478,
      "##قها": 2479,
      "##بح": 2480,
      "##لف": 2481,
      "##جة": 2482,
      "##مت": 2483,
      "##بان": 2484,
      "##هوم": 2485,
      "يش": 2486,
      "كب": 2487,
      "عارف": 2488,
      "فق": 2489,
      "##ضة": 2490,
      "##مس": 2491,
      "نفس": 2492,
      "بج": 2493,
      "ماي": 2494,
      "##يل": 2495,
      "يال": 2496,
      "راك": 2497,
      "حنا": 2498,
      "##ضو": 2499,
      "هذا": 2500,
      "##انة": 2501,
      "ناض": 2502,
      "##نس": 2503,
      "##رت": 2504,
      "عط": 2505,
      "##احة": 2506,
      "##موع": 2507,
      "خلي": 2508,
      "وحدة": 2509,
      "يديها": 2510,
      "##هضر": 2511,
      "تج": 2512,
      "بقات": 2513,
      "##اول": 2514,
      "بيها": 2515,
      "مشات": 2516,
      "حدا": 2517,
      "##رات": 2518,
      "##باح": 2519,
      "كيشوف": 2520,
      "##رق": 2521,
      "##اود": 2522,
      "##رية": 2523,
      "بت": 2524,
      "الباب": 2525,
      "تكون": 2526,
      "اف": 2527,
      "##وب": 2528,
      "لف": 2529,
      "كتشوف": 2530,
      "غا": 2531,
      "وانا": 2532,
      "##ديك": 2533,
      "نور": 2534,
      "يكون": 2535,
      "است": 2536,
      "قل": 2537,
      "##اعة": 2538,
      "منو": 2539,
      "يدو": 2540,
      "فرح": 2541,
      "راج": 2542,
      "معايا": 2543,
      "الاس": 2544,
      "##صل": 2545,
      "لخ": 2546,
      "عق": 2547,
      "الام": 2548,
      "شكرا": 2549,
      "منها": 2550,
      "دير": 2551,
      "فيك": 2552,
      "غن": 2553,
      "##حس": 2554,
      "الان": 2555,
      "المغرب": 2556,
      "كيفاش": 2557,
      "##طع": 2558,
      "##زيد": 2559,
      "كيت": 2560,
      "خص": 2561,
      "مزال": 2562,
      "كامل": 2563,
      "##طلع": 2564,
      "##وها": 2565,
      "مد": 2566,
      "##يدة": 2567,
      "قرب": 2568,
      "محمد": 2569,
      "##بك": 2570,
      "بيه": 2571,
      "كول": 2572,
      "##ضرب": 2573,
      "عينيه": 2574,
      "وجها": 2575,
      "##ريم": 2576,
      "خويا": 2577,
      "##بكي": 2578,
      "زوين": 2579,
      "##وسف": 2580,
      "##بيل": 2581,
      "يق": 2582,
      "باب": 2583,
      "##بت": 2584,
      "ديما": 2585,
      "نص": 2586,
      "بنت": 2587,
      "لعند": 2588,
      "فيهم": 2589,
      "نشوف": 2590,
      "تشوف": 2591,
      "##كس": 2592,
      "بخ": 2593,
      "##دمة": 2594,
      "##رس": 2595,
      "صغ": 2596,
      "##رد": 2597,
      "عل": 2598,
      "##وايج": 2599,
      "ته": 2600,
      "يد": 2601,
      "##وقت": 2602,
      "##يتي": 2603,
      "الاخ": 2604,
      "##خلو": 2605,
      "##باب": 2606,
      "##اتش": 2607,
      "غت": 2608,
      "بصح": 2609,
      "بان": 2610,
      "##بيت": 2611,
      "امين": 2612,
      "ولد": 2613,
      "غان": 2614,
      "##سم": 2615,
      "عليهم": 2616,
      "##ماء": 2617,
      "##بية": 2618,
      "كر": 2619,
      "ديالها": 2620,
      "جات": 2621,
      "مشا": 2622,
      "فيا": 2623,
      "##كا": 2624,
      "لاب": 2625,
      "بقا": 2626,
      "##ديها": 2627,
      "هاك": 2628,
      "##عب": 2629,
      "يوسف": 2630,
      "مني": 2631,
      "خير": 2632,
      "##اية": 2633,
      "##نز": 2634,
      "وغ": 2635,
      "ضحك": 2636,
      "##رين": 2637,
      "##تا": 2638,
      "حم": 2639,
      "نمشي": 2640,
      "نج": 2641,
      "##فون": 2642,
      "الفي": 2643,
      "لينا": 2644,
      "##فها": 2645,
      "يديه": 2646,
      "##بيبة": 2647,
      "عمر": 2648,
      "ضرب": 2649,
      "جو": 2650,
      "تز": 2651,
      "##هة": 2652,
      "نح": 2653,
      "##طر": 2654,
      "##دين": 2655,
      "##بال": 2656,
      "##نين": 2657,
      "فهاد": 2658,
      "وكي": 2659,
      "##تسامة": 2660,
      "حل": 2661,
      "هزات": 2662,
      "##ليها": 2663,
      "ديالي": 2664,
      "##بس": 2665,
      "راسك": 2666,
      "عين": 2667,
      "عليكم": 2668,
      "##ديد": 2669,
      "لها": 2670,
      "جلس": 2671,
      "##سين": 2672,
      "##ارض": 2673,
      "##رض": 2674,
      "##شات": 2675,
      "غاي": 2676,
      "يف": 2677,
      "ليهم": 2678,
      "##شا": 2679,
      "باقي": 2680,
      "المس": 2681,
      "اج": 2682,
      "باغ": 2683,
      "##فع": 2684,
      "##ارت": 2685,
      "##سان": 2686,
      "##بات": 2687,
      "قلت": 2688,
      "##عم": 2689,
      "شاء": 2690,
      "غات": 2691,
      "زين": 2692,
      "اكر": 2693,
      "##حت": 2694,
      "##ضرة": 2695,
      "##لاه": 2696,
      "##مكن": 2697,
      "باغي": 2698,
      "ني": 2699,
      "ديالك": 2700,
      "ناس": 2701,
      "دارت": 2702,
      "##قد": 2703,
      "اجي": 2704,
      "مف": 2705,
      "فو": 2706,
      "##بين": 2707,
      "مان": 2708,
      "##ديه": 2709,
      "كانو": 2710,
      "بك": 2711,
      "كاع": 2712,
      "لاي": 2713,
      "احسن": 2714,
      "##رام": 2715,
      "بوح": 2716,
      "بدات": 2717,
      "سلام": 2718,
      "حال": 2719,
      "خرجات": 2720,
      "##يس": 2721,
      "##قت": 2722,
      "خل": 2723,
      "##صر": 2724,
      "##يتو": 2725,
      "تبارك": 2726,
      "##ليفون": 2727,
      "##به": 2728,
      "جا": 2729,
      "مست": 2730,
      "##حاب": 2731,
      "##ياة": 2732,
      "عف": 2733,
      "##هاش": 2734,
      "##يم": 2735,
      "ندير": 2736,
      "جال": 2737,
      "##ابع": 2738,
      "داير": 2739,
      "##وص": 2740,
      "لان": 2741,
      "اكرام": 2742,
      "جمي": 2743,
      "عام": 2744,
      "فحال": 2745,
      "تغ": 2746,
      "زع": 2747,
      "##نى": 2748,
      "##نية": 2749,
      "##موت": 2750,
      "##فظ": 2751,
      "فراس": 2752,
      "##ربية": 2753,
      "##له": 2754,
      "المش": 2755,
      "الرج": 2756,
      "وكت": 2757,
      "بغيتي": 2758,
      "شعرها": 2759,
      "##لين": 2760,
      "نش": 2761,
      "##جر": 2762,
      "##سات": 2763,
      "خلا": 2764,
      "وا": 2765,
      "صد": 2766,
      "##لان": 2767,
      "الوقت": 2768,
      "##مض": 2769,
      "##قلب": 2770,
      "##يرو": 2771,
      "##لوس": 2772,
      "##مين": 2773,
      "##دية": 2774,
      "جمال": 2775,
      "##كو": 2776,
      "##قولي": 2777,
      "##طل": 2778,
      "##جري": 2779,
      "واع": 2780,
      "دخلات": 2781,
      "جاب": 2782,
      "##مش": 2783,
      "عص": 2784,
      "رك": 2785,
      "لقات": 2786,
      "اخي": 2787,
      "لدار": 2788,
      "اليوم": 2789,
      "##طق": 2790,
      "##فت": 2791,
      "فد": 2792,
      "فمها": 2793,
      "المو": 2794,
      "دبا": 2795,
      "##اتهم": 2796,
      "##اتك": 2797,
      "##زو": 2798,
      "الشي": 2799,
      "فيديو": 2800,
      "##ارج": 2801,
      "اهي": 2802,
      "مه": 2803,
      "منين": 2804,
      "##نيا": 2805,
      "تما": 2806,
      "وخرج": 2807,
      "خاي": 2808,
      "##لية": 2809,
      "##نتي": 2810,
      "##بار": 2811,
      "حشو": 2812,
      "##فكر": 2813,
      "مور": 2814,
      "##لعب": 2815,
      "يجي": 2816,
      "##حر": 2817,
      "ختي": 2818,
      "##حل": 2819,
      "##اكل": 2820,
      "لج": 2821,
      "داز": 2822,
      "يارب": 2823,
      "اصلا": 2824,
      "##قل": 2825,
      "##سر": 2826,
      "##كة": 2827,
      "جمع": 2828,
      "قالت": 2829,
      "تحت": 2830,
      "براس": 2831,
      "حيد": 2832,
      "المع": 2833,
      "##ادم": 2834,
      "انه": 2835,
      "راسي": 2836,
      "##زاير": 2837,
      "مشي": 2838,
      "##وتي": 2839,
      "مكاين": 2840,
      "##اخل": 2841,
      "##ناة": 2842,
      "صوت": 2843,
      "##لاح": 2844,
      "##ربة": 2845,
      "حشومة": 2846,
      "##طيك": 2847,
      "##انية": 2848,
      "مكت": 2849,
      "##امي": 2850,
      "##ونس": 2851,
      "الحمد": 2852,
      "ين": 2853,
      "كنتي": 2854,
      "يه": 2855,
      "##رى": 2856,
      "حوايج": 2857,
      "كم": 2858,
      "##وات": 2859,
      "اسي": 2860,
      "##كمل": 2861,
      "بدا": 2862,
      "الث": 2863,
      "زي": 2864,
      "##ذي": 2865,
      "##تيش": 2866,
      "الري": 2867,
      "صباح": 2868,
      "##سمع": 2869,
      "يخ": 2870,
      "وز": 2871,
      "مالك": 2872,
      "##منى": 2873,
      "بغات": 2874,
      "بغا": 2875,
      "تجي": 2876,
      "##روك": 2877,
      "الدر": 2878,
      "جاي": 2879,
      "##ابة": 2880,
      "##نب": 2881,
      "كولشي": 2882,
      "##ونا": 2883,
      "شد": 2884,
      "##زال": 2885,
      "بشوية": 2886,
      "##صب": 2887,
      "ياسين": 2888,
      "##اون": 2889,
      "##مام": 2890,
      "راي": 2891,
      "لغ": 2892,
      "غاد": 2893,
      "##اوي": 2894,
      "##اسم": 2895,
      "مرح": 2896,
      "تال": 2897,
      "منك": 2898,
      "وصل": 2899,
      "فخ": 2900,
      "##رعة": 2901,
      "تك": 2902,
      "##بلة": 2903,
      "بصوت": 2904,
      "##يتش": 2905,
      "فش": 2906,
      "##ركة": 2907,
      "وقالت": 2908,
      "كتح": 2909,
      "##مك": 2910,
      "لباب": 2911,
      "##يرا": 2912,
      "##دخل": 2913,
      "الهم": 2914,
      "يدير": 2915,
      "##صد": 2916,
      "فهم": 2917,
      "يعني": 2918,
      "##قك": 2919,
      "طي": 2920,
      "##فض": 2921,
      "فك": 2922,
      "##ريقة": 2923,
      "هدا": 2924,
      "##عجب": 2925,
      "##املة": 2926,
      "يخلي": 2927,
      "سع": 2928,
      "##اوب": 2929,
      "ماما": 2930,
      "##ندي": 2931,
      "ناضت": 2932,
      "هاز": 2933,
      "واقف": 2934,
      "##وال": 2935,
      "##طات": 2936,
      "##دك": 2937,
      "شاد": 2938,
      "معرف": 2939,
      "##صي": 2940,
      "بط": 2941,
      "جوج": 2942,
      "سير": 2943,
      "عفاك": 2944,
      "##اربة": 2945,
      "كبير": 2946,
      "سك": 2947,
      "وقع": 2948,
      "تر": 2949,
      "ياربي": 2950,
      "##موبيل": 2951,
      "##يتها": 2952,
      "سلم": 2953,
      "##ارح": 2954,
      "وجهو": 2955,
      "دوز": 2956,
      "##قر": 2957,
      "لام": 2958,
      "##ريب": 2959,
      "##ابي": 2960,
      "##عل": 2961,
      "الخير": 2962,
      "مكان": 2963,
      "الدار": 2964,
      "##راحة": 2965,
      "فن": 2966,
      "تمشي": 2967,
      "##هل": 2968,
      "ليلى": 2969,
      "رب": 2970,
      "هيا": 2971,
      "هبط": 2972,
      "ياله": 2973,
      "مث": 2974,
      "علينا": 2975,
      "زاد": 2976,
      "##قدر": 2977,
      "20": 2978,
      "السي": 2979,
      "نف": 2980,
      "حسن": 2981,
      "باله": 2982,
      "##يدو": 2983,
      "اغ": 2984,
      "فل": 2985,
      "وط": 2986,
      "##اله": 2987,
      "بعض": 2988,
      "##حو": 2989,
      "دور": 2990,
      "مرحبا": 2991,
      "جل": 2992,
      "خال": 2993,
      "##افيك": 2994,
      "الفيديو": 2995,
      "فب": 2996,
      "دال": 2997,
      "الدين": 2998,
      "##هور": 2999,
      "دو": 3000,
      "اسد": 3001,
      "##ترك": 3002,
      "يلاه": 3003,
      "##تى": 3004,
      "هضر": 3005,
      "كتر": 3006,
      "وكل": 3007,
      "حبيب": 3008,
      "ورجع": 3009,
      "##ليه": 3010,
      "##ثة": 3011,
      "سيف": 3012,
      "مسك": 3013,
      "به": 3014,
      "##بقا": 3015,
      "طال": 3016,
      "فح": 3017,
      "زعما": 3018,
      "كا": 3019,
      "توح": 3020,
      "##واج": 3021,
      "قر": 3022,
      "البنت": 3023,
      "##ارو": 3024,
      "##خر": 3025,
      "فالم": 3026,
      "بيك": 3027,
      "مكي": 3028,
      "##لط": 3029,
      "عايشة": 3030,
      "هذ": 3031,
      "##ينيها": 3032,
      "المهم": 3033,
      "##ou": 3034,
      "الفر": 3035,
      "صاح": 3036,
      "الاح": 3037,
      "##وة": 3038,
      "مبروك": 3039,
      "يشوف": 3040,
      "مهم": 3041,
      "بو": 3042,
      "ديري": 3043,
      "10": 3044,
      "##ايل": 3045,
      "راني": 3046,
      "##غرب": 3047,
      "كين": 3048,
      "الحق": 3049,
      "##اما": 3050,
      "دخلو": 3051,
      "وقفات": 3052,
      "##تهم": 3053,
      "نقول": 3054,
      "ولاد": 3055,
      "##ته": 3056,
      "##يتك": 3057,
      "اخرى": 3058,
      "يرح": 3059,
      "يج": 3060,
      "ومن": 3061,
      "معاهم": 3062,
      "عندهم": 3063,
      "##بقى": 3064,
      "ريم": 3065,
      "شخص": 3066,
      "البنات": 3067,
      "شدات": 3068,
      "##هات": 3069,
      "الحال": 3070,
      "فج": 3071,
      "اخويا": 3072,
      "كلام": 3073,
      "اد": 3074,
      "اق": 3075,
      "##زن": 3076,
      "بنتي": 3077,
      "هما": 3078,
      "زينب": 3079,
      "##ليك": 3080,
      "العالم": 3081,
      "تست": 3082,
      "لاح": 3083,
      "رو": 3084,
      "لس": 3085,
      "عش": 3086,
      "الوال": 3087,
      "بنادم": 3088,
      "##ارفة": 3089,
      "عزي": 3090,
      "دموع": 3091,
      "هوا": 3092,
      "##ne": 3093,
      "##قوة": 3094,
      "را": 3095,
      "تعرف": 3096,
      "نجي": 3097,
      "الدراري": 3098,
      "##هاب": 3099,
      "##زوج": 3100,
      "ساك": 3101,
      "تقول": 3102,
      "##لاق": 3103,
      "تاع": 3104,
      "##ادر": 3105,
      "عادي": 3106,
      "ابنتي": 3107,
      "##دوز": 3108,
      "##رفة": 3109,
      "##تل": 3110,
      "لبي": 3111,
      "عجب": 3112,
      "خط": 3113,
      "##فرج": 3114,
      "ساعة": 3115,
      "ماق": 3116,
      "لايك": 3117,
      "يدها": 3118,
      "هك": 3119,
      "ناع": 3120,
      "مري": 3121,
      "فط": 3122,
      "فاي": 3123,
      "##وتو": 3124,
      "##زل": 3125,
      "حرك": 3126,
      "الاع": 3127,
      "قنات": 3128,
      "انش": 3129,
      "هاذ": 3130,
      "لاش": 3131,
      "##عت": 3132,
      "اكثر": 3133,
      "##وقف": 3134,
      "بلاص": 3135,
      "جديد": 3136,
      "##اهل": 3137,
      "توحش": 3138,
      "##راق": 3139,
      "يحفظ": 3140,
      "غدا": 3141,
      "انها": 3142,
      "صف": 3143,
      "مول": 3144,
      "##ضل": 3145,
      "مريم": 3146,
      "قلبها": 3147,
      "كتبكي": 3148,
      "رق": 3149,
      "الور": 3150,
      "##يط": 3151,
      "##ونة": 3152,
      "الجزاير": 3153,
      "يمكن": 3154,
      "سيري": 3155,
      "##لاص": 3156,
      "وسط": 3157,
      "ماغ": 3158,
      "يالاه": 3159,
      "##اسة": 3160,
      "##تيني": 3161,
      "مابغ": 3162,
      "##وقع": 3163,
      "دوك": 3164,
      "حداها": 3165,
      "نزل": 3166,
      "جب": 3167,
      "خلات": 3168,
      "قد": 3169,
      "هادا": 3170,
      "تاني": 3171,
      "وجه": 3172,
      "##قيقة": 3173,
      "حلي": 3174,
      "عد": 3175,
      "طلق": 3176,
      "دغ": 3177,
      "##كش": 3178,
      "طريق": 3179,
      "لص": 3180,
      "##ضرو": 3181,
      "##ولو": 3182,
      "##يش": 3183,
      "ير": 3184,
      "بجوج": 3185,
      "##تيها": 3186,
      "كيح": 3187,
      "حطات": 3188,
      "ند": 3189,
      "طاح": 3190,
      "##ضع": 3191,
      "شفاي": 3192,
      "وما": 3193,
      "الاب": 3194,
      "##افت": 3195,
      "##كتب": 3196,
      "##مار": 3197,
      "##افة": 3198,
      "لت": 3199,
      "واي": 3200,
      "صب": 3201,
      "روح": 3202,
      "##وفي": 3203,
      "از": 3204,
      "سو": 3205,
      "رجعات": 3206,
      "ماعرف": 3207,
      "##قاش": 3208,
      "##فات": 3209,
      "كتع": 3210,
      "عب": 3211,
      "وقت": 3212,
      "بابا": 3213,
      "خدي": 3214,
      "##ضوع": 3215,
      "يونس": 3216,
      "خدام": 3217,
      "##ناء": 3218,
      "شوفي": 3219,
      "يوم": 3220,
      "اري": 3221,
      "تخرج": 3222,
      "اشنو": 3223,
      "حلات": 3224,
      "السلام": 3225,
      "##ظر": 3226,
      "بار": 3227,
      "حاج": 3228,
      "مار": 3229,
      "داي": 3230,
      "نه": 3231,
      "طوي": 3232,
      "##تحت": 3233,
      "لش": 3234,
      "##قى": 3235,
      "نط": 3236,
      "راجل": 3237,
      "##رجة": 3238,
      "اوا": 3239,
      "ماد": 3240,
      "حنان": 3241,
      "خارج": 3242,
      "وان": 3243,
      "شفت": 3244,
      "##اسي": 3245,
      "بعدا": 3246,
      "فقط": 3247,
      "##توما": 3248,
      "##نق": 3249,
      "فم": 3250,
      "بدون": 3251,
      "##لاد": 3252,
      "##لاش": 3253,
      "ناد": 3254,
      "التي": 3255,
      "قطع": 3256,
      "##دار": 3257,
      "ومع": 3258,
      "قلبي": 3259,
      "لاخ": 3260,
      "الهضرة": 3261,
      "اني": 3262,
      "تاي": 3263,
      "##طان": 3264,
      "مرو": 3265,
      "الضحك": 3266,
      "فمو": 3267,
      "فكر": 3268,
      "عاف": 3269,
      "عبد": 3270,
      "بكل": 3271,
      "ولات": 3272,
      "درت": 3273,
      "ولدي": 3274,
      "ونا": 3275,
      "عارفة": 3276,
      "##زات": 3277,
      "##اهو": 3278,
      "كو": 3279,
      "وخا": 3280,
      "الاي": 3281,
      "ار": 3282,
      "##ليل": 3283,
      "بف": 3284,
      "قص": 3285,
      "ياخ": 3286,
      "##دور": 3287,
      "الكل": 3288,
      "تنهد": 3289,
      "هاديك": 3290,
      "هاكا": 3291,
      "بم": 3292,
      "بابتسامة": 3293,
      "vi": 3294,
      "شر": 3295,
      "عماد": 3296,
      "ناري": 3297,
      "سال": 3298,
      "مكاينش": 3299,
      "هوما": 3300,
      "البي": 3301,
      "اسر": 3302,
      "معند": 3303,
      "يقول": 3304,
      "كلها": 3305,
      "كتس": 3306,
      "##طف": 3307,
      "صح": 3308,
      "بالع": 3309,
      "يست": 3310,
      "ست": 3311,
      "##تراك": 3312,
      "##ايرة": 3313,
      "كثر": 3314,
      "عندنا": 3315,
      "كاملين": 3316,
      "##رتاح": 3317,
      "##ولد": 3318,
      "اكيد": 3319,
      "##وجه": 3320,
      "##غوت": 3321,
      "حياة": 3322,
      "##انو": 3323,
      "رح": 3324,
      "##عر": 3325,
      "##نك": 3326,
      "ايوا": 3327,
      "##غر": 3328,
      "طلعات": 3329,
      "##روج": 3330,
      "دغيا": 3331,
      "##نع": 3332,
      "لور": 3333,
      "نض": 3334,
      "سيد": 3335,
      "##ليا": 3336,
      "##كري": 3337,
      "##خة": 3338,
      "بها": 3339,
      "تفكر": 3340,
      "سخ": 3341,
      "ودخل": 3342,
      "لبيت": 3343,
      "بهاد": 3344,
      "##اصل": 3345,
      "يص": 3346,
      "##يلي": 3347,
      "الاش": 3348,
      "##ظة": 3349,
      "##hashtag": 3350,
      "##جع": 3351,
      "خرجو": 3352,
      "##دت": 3353,
      "قولي": 3354,
      "فهد": 3355,
      "المر": 3356,
      "فص": 3357,
      "ماف": 3358,
      "المح": 3359,
      "كبيرة": 3360,
      "##ينيه": 3361,
      "كلا": 3362,
      "##كره": 3363,
      "الذ": 3364,
      "##نها": 3365,
      "##نيش": 3366,
      "اسماء": 3367,
      "##الو": 3368,
      "ورا": 3369,
      "##دوي": 3370,
      "جاو": 3371,
      "مبغ": 3372,
      "##قاي": 3373,
      "اذا": 3374,
      "##الية": 3375,
      "##سل": 3376,
      "انشاء": 3377,
      "الحاجة": 3378,
      "بقوة": 3379,
      "##راة": 3380,
      "الارض": 3381,
      "##اهي": 3382,
      "##يف": 3383,
      "##كان": 3384,
      "ليكم": 3385,
      "درتي": 3386,
      "حسات": 3387,
      "ياسر": 3388,
      "باي": 3389,
      "رجليها": 3390,
      "حداه": 3391,
      "##طور": 3392,
      "حبيبتي": 3393,
      "تبع": 3394,
      "يعطيك": 3395,
      "##رحة": 3396,
      "باغا": 3397,
      "##خير": 3398,
      "نورسين": 3399,
      "تلف": 3400,
      "##حات": 3401,
      "فت": 3402,
      "نيت": 3403,
      "##ضية": 3404,
      "##طار": 3405,
      "زيد": 3406,
      "سب": 3407,
      "##الك": 3408,
      "لاس": 3409,
      "صغيرة": 3410,
      "##افو": 3411,
      "##هوة": 3412,
      "انك": 3413,
      "النهار": 3414,
      "##ar": 3415,
      "##بتي": 3416,
      "##مانة": 3417,
      "سكت": 3418,
      "##تاج": 3419,
      "##نيها": 3420,
      "تحب": 3421,
      "##ديت": 3422,
      "كاس": 3423,
      "عصام": 3424,
      "##معو": 3425,
      "##بوس": 3426,
      "##غل": 3427,
      "ارج": 3428,
      "جميع": 3429,
      "بيا": 3430,
      "سارة": 3431,
      "الحب": 3432,
      "وهيا": 3433,
      "##ديدة": 3434,
      "جود": 3435,
      "خاط": 3436,
      "القر": 3437,
      "برا": 3438,
      "هم": 3439,
      "##دوش": 3440,
      "الاو": 3441,
      "مرت": 3442,
      "##شها": 3443,
      "##ورو": 3444,
      "كال": 3445,
      "طل": 3446,
      "فس": 3447,
      "زوج": 3448,
      "جر": 3449,
      "الض": 3450,
      "##تسنا": 3451,
      "واقفة": 3452,
      "وتع": 3453,
      "##هت": 3454,
      "##وزينة": 3455,
      "نخ": 3456,
      "جاد": 3457,
      "عينو": 3458,
      "بعيد": 3459,
      "يو": 3460,
      "وها": 3461,
      "نعرف": 3462,
      "كيضحك": 3463,
      "لما": 3464,
      "حق": 3465,
      "سر": 3466,
      "الاول": 3467,
      "##قدرش": 3468,
      "##تيه": 3469,
      "##حش": 3470,
      "خفي": 3471,
      "منهم": 3472,
      "##شان": 3473,
      "##عات": 3474,
      "لامار": 3475,
      "بسرعة": 3476,
      "بالم": 3477,
      "تد": 3478,
      "لتحت": 3479,
      "##بغيك": 3480,
      "##ينو": 3481,
      "##شر": 3482,
      "##جاب": 3483,
      "قدامو": 3484,
      "طلب": 3485,
      "##لاك": 3486,
      "##ظيم": 3487,
      "##تة": 3488,
      "##ايلة": 3489,
      "##de": 3490,
      "فشي": 3491,
      "كتش": 3492,
      "##صف": 3493,
      "عاود": 3494,
      "كيع": 3495,
      "امي": 3496,
      "##ايد": 3497,
      "كمل": 3498,
      "واح": 3499,
      "البر": 3500,
      "##كيل": 3501,
      "##an": 3502,
      "احم": 3503,
      "تابع": 3504,
      "جن": 3505,
      "مط": 3506,
      "##صو": 3507,
      "لعندو": 3508,
      "فاق": 3509,
      "دخلت": 3510,
      "كلمة": 3511,
      "جالسة": 3512,
      "ومشات": 3513,
      "##شام": 3514,
      "المغاربة": 3515,
      "##اوية": 3516,
      "المن": 3517,
      "تنه": 3518,
      "ايد": 3519,
      "عافاك": 3520,
      "##هرة": 3521,
      "التع": 3522,
      "حش": 3523,
      "مراد": 3524,
      "##me": 3525,
      "##تق": 3526,
      "كدير": 3527,
      "##اضي": 3528,
      "خاصك": 3529,
      "##دق": 3530,
      "##ناش": 3531,
      "رجل": 3532,
      "صغير": 3533,
      "نمشيو": 3534,
      "تيليفون": 3535,
      "حر": 3536,
      "مشيت": 3537,
      "##درها": 3538,
      "اويلي": 3539,
      "قناة": 3540,
      "ليوم": 3541,
      "وصافي": 3542,
      "##ادل": 3543,
      "وليد": 3544,
      "هدر": 3545,
      "##لاي": 3546,
      "##فهم": 3547,
      "##لبس": 3548,
      "وهوا": 3549,
      "هداك": 3550,
      "ابتس": 3551,
      "المرة": 3552,
      "الجو": 3553,
      "باه": 3554,
      "شه": 3555,
      "بقاو": 3556,
      "##انها": 3557,
      "لن": 3558,
      "تخل": 3559,
      "مازال": 3560,
      "ضح": 3561,
      "تزوج": 3562,
      "الحاج": 3563,
      "عنقها": 3564,
      "جلسات": 3565,
      "دموعها": 3566,
      "يخرج": 3567,
      "##اديش": 3568,
      "هكا": 3569,
      "##سول": 3570,
      "لهاد": 3571,
      "##غير": 3572,
      "##عين": 3573,
      "##اة": 3574,
      "##اشي": 3575,
      "ضرو": 3576,
      "ماعند": 3577,
      "قلتي": 3578,
      "##اجل": 3579,
      "شو": 3580,
      "جبد": 3581,
      "صعي": 3582,
      "معانا": 3583,
      "وفاء": 3584,
      "كاملة": 3585,
      "الكر": 3586,
      "##فيق": 3587,
      "##لامة": 3588,
      "##افية": 3589,
      "##عس": 3590,
      "راح": 3591,
      "##ابل": 3592,
      "نتوما": 3593,
      "مشكل": 3594,
      "##الات": 3595,
      "ونتي": 3596,
      "يب": 3597,
      "##es": 3598,
      "لط": 3599,
      "##فل": 3600,
      "##تار": 3601,
      "سمح": 3602,
      "حاط": 3603,
      "كث": 3604,
      "انتي": 3605,
      "##ضب": 3606,
      "ايه": 3607,
      "##شية": 3608,
      "هكاك": 3609,
      "##ساب": 3610,
      "مل": 3611,
      "والي": 3612,
      "وصلات": 3613,
      "اوس": 3614,
      "##لاصة": 3615,
      "سنين": 3616,
      "##الون": 3617,
      "كيش": 3618,
      "حب": 3619,
      "##نزر": 3620,
      "خدم": 3621,
      "وصلو": 3622,
      "##طا": 3623,
      "##طيح": 3624,
      "فاط": 3625,
      "##يرات": 3626,
      "يط": 3627,
      "راها": 3628,
      "جيت": 3629,
      "##al": 3630,
      "جرها": 3631,
      "نوارة": 3632,
      "عرفتي": 3633,
      "المق": 3634,
      "التو": 3635,
      "نيشان": 3636,
      "خديجة": 3637,
      "لبس": 3638,
      "##ماق": 3639,
      "##فيان": 3640,
      "##يران": 3641,
      "اولدي": 3642,
      "##قين": 3643,
      "لعندها": 3644,
      "قناتي": 3645,
      "انو": 3646,
      "الرو": 3647,
      "هادو": 3648,
      "##ميع": 3649,
      "حيث": 3650,
      "##نه": 3651,
      "##راس": 3652,
      "وكن": 3653,
      "##منا": 3654,
      "##بقاو": 3655,
      "لاك": 3656,
      "الدنيا": 3657,
      "لاع": 3658,
      "باك": 3659,
      "##عيش": 3660,
      "المج": 3661,
      "الحل": 3662,
      "برو": 3663,
      "باينة": 3664,
      "##مق": 3665,
      "##توى": 3666,
      "قدامها": 3667,
      "يمشي": 3668,
      "##ساس": 3669,
      "##هز": 3670,
      "غز": 3671,
      "تعلي": 3672,
      "##اجي": 3673,
      "بنات": 3674,
      "متو": 3675,
      "سلمى": 3676,
      "كار": 3677,
      "##كات": 3678,
      "ساع": 3679,
      "واقع": 3680,
      "كيق": 3681,
      "وحتى": 3682,
      "##بحان": 3683,
      "رد": 3684,
      "##كلم": 3685,
      "المخ": 3686,
      "ادم": 3687,
      "##نوض": 3688,
      "##جل": 3689,
      "ريح": 3690,
      "بيهم": 3691,
      "كمال": 3692,
      "واس": 3693,
      "اوف": 3694,
      "##ندير": 3695,
      "##دوء": 3696,
      "ابا": 3697,
      "بشي": 3698,
      "##اجر": 3699,
      "حساب": 3700,
      "جالس": 3701,
      "عو": 3702,
      "الرجال": 3703,
      "##in": 3704,
      "فات": 3705,
      "##غم": 3706,
      "قت": 3707,
      "الصباح": 3708,
      "##بيبي": 3709,
      "هشام": 3710,
      "##يه": 3711,
      "عض": 3712,
      "كنا": 3713,
      "##وصا": 3714,
      "تات": 3715,
      "كتق": 3716,
      "هدشي": 3717,
      "جه": 3718,
      "##جيب": 3719,
      "##وفيق": 3720,
      "##حن": 3721,
      "##ادو": 3722,
      "تحية": 3723,
      "ايلا": 3724,
      "دارو": 3725,
      "##شف": 3726,
      "الموت": 3727,
      "ماح": 3728,
      "فتح": 3729,
      "##عيط": 3730,
      "النا": 3731,
      "نكون": 3732,
      "نظ": 3733,
      "زوينه": 3734,
      "واخة": 3735,
      "بخير": 3736,
      "جدا": 3737,
      "ضروري": 3738,
      "##مكنش": 3739,
      "##ينش": 3740,
      "##زق": 3741,
      "دايرة": 3742,
      "كلو": 3743,
      "تفو": 3744,
      "العظيم": 3745,
      "##هام": 3746,
      "##اقي": 3747,
      "بانت": 3748,
      "ماخ": 3749,
      "##فاش": 3750,
      "يك": 3751,
      "##نقها": 3752,
      "صدي": 3753,
      "فوج": 3754,
      "حمر": 3755,
      "ناديا": 3756,
      "المد": 3757,
      "يرحم": 3758,
      "فحي": 3759,
      "عزيز": 3760,
      "يشافيك": 3761,
      "بالز": 3762,
      "ريماس": 3763,
      "اكبر": 3764,
      "الطريق": 3765,
      "داخل": 3766,
      "##صور": 3767,
      "بالج": 3768,
      "##طين": 3769,
      "##ارات": 3770,
      "صحاب": 3771,
      "شفايفها": 3772,
      "باين": 3773,
      "معا": 3774,
      "نخلي": 3775,
      "يغ": 3776,
      "صراحة": 3777,
      "الشخص": 3778,
      "##اطع": 3779,
      "لقيت": 3780,
      "الوح": 3781,
      "##روال": 3782,
      "باست": 3783,
      "##ha": 3784,
      "##بير": 3785,
      "قب": 3786,
      "داخ": 3787,
      "##ريس": 3788,
      "الخدمة": 3789,
      "وردة": 3790,
      "وانت": 3791,
      "نعس": 3792,
      "نوض": 3793,
      "كاتشوف": 3794,
      "هار": 3795,
      "نخرج": 3796,
      "سبحان": 3797,
      "كح": 3798,
      "##صح": 3799,
      "خرجت": 3800,
      "صحي": 3801,
      "حلو": 3802,
      "ديالهم": 3803,
      "فالح": 3804,
      "السيد": 3805,
      "بارك": 3806,
      "ابت": 3807,
      "نوضي": 3808,
      "شهر": 3809,
      "جبل": 3810,
      "##وان": 3811,
      "شغ": 3812,
      "##ثى": 3813,
      "منا": 3814,
      "##سيم": 3815,
      "##اتنا": 3816,
      "ويع": 3817,
      "##ساء": 3818,
      "كتخ": 3819,
      "لفوق": 3820,
      "طو": 3821,
      "##سية": 3822,
      "##صا": 3823,
      "##الا": 3824,
      "امير": 3825,
      "لابسة": 3826,
      "ابتسامة": 3827,
      "قالي": 3828,
      "تل": 3829,
      "قول": 3830,
      "بينما": 3831,
      "وراه": 3832,
      "##ذن": 3833,
      "تلا": 3834,
      "ايام": 3835,
      "##مسح": 3836,
      "عا": 3837,
      "لبنات": 3838,
      "العام": 3839,
      "ماشاء": 3840,
      "والح": 3841,
      "عمري": 3842,
      "بقيت": 3843,
      "العي": 3844,
      "مليون": 3845,
      "حياتي": 3846,
      "ارس": 3847,
      "البيت": 3848,
      "جس": 3849,
      "كريم": 3850,
      "##لامح": 3851,
      "غمض": 3852,
      "مشاو": 3853,
      "##يتة": 3854,
      "الحالة": 3855,
      "المت": 3856,
      "تنهدات": 3857,
      "تاك": 3858,
      "سفيان": 3859,
      "##هب": 3860,
      "فري": 3861,
      "##صاب": 3862,
      "##برة": 3863,
      "حبيبة": 3864,
      "كير": 3865,
      "##تني": 3866,
      "كاينة": 3867,
      "##روف": 3868,
      "باسها": 3869,
      "##مح": 3870,
      "مسكين": 3871,
      "تبكي": 3872,
      "الساعة": 3873,
      "تلق": 3874,
      "دازت": 3875,
      "تحل": 3876,
      "##طب": 3877,
      "##وتها": 3878,
      "##سيف": 3879,
      "البارح": 3880,
      "قري": 3881,
      "قاد": 3882,
      "فعلا": 3883,
      "##قف": 3884,
      "كذ": 3885,
      "##سك": 3886,
      "مها": 3887,
      "ومشا": 3888,
      "قدر": 3889,
      "الدو": 3890,
      "الصحة": 3891,
      "بلع": 3892,
      "طول": 3893,
      "##وط": 3894,
      "قربات": 3895,
      "القلب": 3896,
      "##سى": 3897,
      "##❤❤": 3898,
      "فاطمة": 3899,
      "احبيبة": 3900,
      "فض": 3901,
      "عاو": 3902,
      "##ثمان": 3903,
      "##حيل": 3904,
      "##فك": 3905,
      "##ناه": 3906,
      "مغربي": 3907,
      "بيت": 3908,
      "تقدر": 3909,
      "نها": 3910,
      "بالي": 3911,
      "##قولو": 3912,
      "كلهم": 3913,
      "خلاها": 3914,
      "##نسبة": 3915,
      "يحفظك": 3916,
      "##دل": 3917,
      "عايش": 3918,
      "رجال": 3919,
      "واعر": 3920,
      "##ناي": 3921,
      "##ضور": 3922,
      "الملك": 3923,
      "والع": 3924,
      "يفرح": 3925,
      "كيدير": 3926,
      "وبدات": 3927,
      "جيتي": 3928,
      "##خب": 3929,
      "ماس": 3930,
      "شك": 3931,
      "مصدو": 3932,
      "سلي": 3933,
      "الحياة": 3934,
      "تسمع": 3935,
      "عاق": 3936,
      "توبة": 3937,
      "##قيتي": 3938,
      "فنفس": 3939,
      "المغربي": 3940,
      "دفع": 3941,
      "##تم": 3942,
      "فواد": 3943,
      "##وار": 3944,
      "##انيا": 3945,
      "وناض": 3946,
      "خليني": 3947,
      "##خي": 3948,
      "حرام": 3949,
      "بالح": 3950,
      "بلاد": 3951,
      "##ركات": 3952,
      "رقية": 3953,
      "سول": 3954,
      "##تاح": 3955,
      "لفي": 3956,
      "##deo": 3957,
      "قلبو": 3958,
      "##كية": 3959,
      "راف": 3960,
      "video": 3961,
      "##ياء": 3962,
      "الرح": 3963,
      "وفي": 3964,
      "الصح": 3965,
      "فالس": 3966,
      "جميلة": 3967,
      "اكت": 3968,
      "نشوفو": 3969,
      "##مرة": 3970,
      "##هرها": 3971,
      "حليمة": 3972,
      "فار": 3973,
      "##لمين": 3974,
      "حواج": 3975,
      "فالع": 3976,
      "فعينيها": 3977,
      "كيس": 3978,
      "عنقات": 3979,
      "##on": 3980,
      "شويا": 3981,
      "قوة": 3982,
      "لشي": 3983,
      "##كار": 3984,
      "يحي": 3985,
      "ترجع": 3986,
      "##زها": 3987,
      "ايمن": 3988,
      "شادة": 3989,
      "كتجري": 3990,
      "شفتي": 3991,
      "كنشوف": 3992,
      "كايشوف": 3993,
      "فبلاص": 3994,
      "ماريا": 3995,
      "نطق": 3996,
      "##تنا": 3997,
      "العم": 3998,
      "الشر": 3999,
      "مخلي": 4000,
      "صدرو": 4001,
      "نزار": 4002,
      "##اصر": 4003,
      "عمرو": 4004,
      "لقا": 4005,
      "لابس": 4006,
      "##ترم": 4007,
      "##قوب": 4008,
      "مهدي": 4009,
      "وطلع": 4010,
      "الاف": 4011,
      "درهم": 4012,
      "##طيه": 4013,
      "##طيها": 4014,
      "##جد": 4015,
      "##قص": 4016,
      "ماج": 4017,
      "##بعد": 4018,
      "##امن": 4019,
      "بحالك": 4020,
      "##الح": 4021,
      "##فلة": 4022,
      "##زين": 4023,
      "كتب": 4024,
      "النو": 4025,
      "الطبيب": 4026,
      "##ءه": 4027,
      "بالت": 4028,
      "##اسمات": 4029,
      "ناعسة": 4030,
      "اوكي": 4031,
      "##رجعو": 4032,
      "لباس": 4033,
      "لول": 4034,
      "كري": 4035,
      "##معة": 4036,
      "ارسلان": 4037,
      "بلاصة": 4038,
      "خصوصا": 4039,
      "مسكينة": 4040,
      "##داو": 4041,
      "قي": 4042,
      "##ياتي": 4043,
      "اوك": 4044,
      "##صير": 4045,
      "##ربو": 4046,
      "ليلة": 4047,
      "بالو": 4048,
      "غال": 4049,
      "بداو": 4050,
      "لبسات": 4051,
      "معرفتش": 4052,
      "شوي": 4053,
      "##صبية": 4054,
      "##بيع": 4055,
      "##فين": 4056,
      "نعمة": 4057,
      "##جبد": 4058,
      "ولو": 4059,
      "بالنسبة": 4060,
      "ضار": 4061,
      "##ايب": 4062,
      "##ابط": 4063,
      "احمد": 4064,
      "##اسين": 4065,
      "##داد": 4066,
      "انس": 4067,
      "ياسمين": 4068,
      "الموضوع": 4069,
      "ماكان": 4070,
      "##قش": 4071,
      "نزلات": 4072,
      "عمي": 4073,
      "دايما": 4074,
      "الاج": 4075,
      "كيبان": 4076,
      "دوش": 4077,
      "كد": 4078,
      "الفلوس": 4079,
      "حول": 4080,
      "##مضان": 4081,
      "الما": 4082,
      "##لاتي": 4083,
      "##زم": 4084,
      "##بيلة": 4085,
      "غدي": 4086,
      "كبر": 4087,
      "شافها": 4088,
      "غوت": 4089,
      "##تكم": 4090,
      "بوس": 4091,
      "بقى": 4092,
      "شيء": 4093,
      "وعلى": 4094,
      "بالك": 4095,
      "الاق": 4096,
      "ديالنا": 4097,
      "سعد": 4098,
      "مروى": 4099,
      "وهاد": 4100,
      "هارون": 4101,
      "سمعات": 4102,
      "خاصني": 4103,
      "##منة": 4104,
      "##ايش": 4105,
      "الدم": 4106,
      "عثمان": 4107,
      "لواحد": 4108,
      "وتو": 4109,
      "مدة": 4110,
      "لكل": 4111,
      "وتح": 4112,
      "كنح": 4113,
      "ويلي": 4114,
      "افضل": 4115,
      "تان": 4116,
      "ولاكن": 4117,
      "قريب": 4118,
      "كتحس": 4119,
      "علم": 4120,
      "جام": 4121,
      "##بقاش": 4122,
      "##نفس": 4123,
      "لداخل": 4124,
      "201": 4125,
      "الانثى": 4126,
      "##ميل": 4127,
      "بالف": 4128,
      "واج": 4129,
      "والم": 4130,
      "براسها": 4131,
      "طويلة": 4132,
      "##زان": 4133,
      "##طال": 4134,
      "شدها": 4135,
      "كيخ": 4136,
      "مافي": 4137,
      "جنب": 4138,
      "يلا": 4139,
      "هذه": 4140,
      "##am": 4141,
      "##ناك": 4142,
      "##قبل": 4143,
      "دراري": 4144,
      "##ضا": 4145,
      "هاني": 4146,
      "##جمع": 4147,
      "##هش": 4148,
      "##نوات": 4149,
      "##يات": 4150,
      "قيس": 4151,
      "##ريك": 4152,
      "##طح": 4153,
      "شيماء": 4154,
      "##ينها": 4155,
      "لمو": 4156,
      "##طلب": 4157,
      "##نديش": 4158,
      "##اكش": 4159,
      "اليل": 4160,
      "اسم": 4161,
      "دم": 4162,
      "غالي": 4163,
      "بهدوء": 4164,
      "##قيق": 4165,
      "##هما": 4166,
      "وخرجات": 4167,
      "عقلها": 4168,
      "طبيب": 4169,
      "##شق": 4170,
      "##ايح": 4171,
      "قف": 4172,
      "اصاح": 4173,
      "يقدر": 4174,
      "لالة": 4175,
      "العين": 4176,
      "هاي": 4177,
      "سنة": 4178,
      "مغي": 4179,
      "##قايق": 4180,
      "القناة": 4181,
      "وكان": 4182,
      "زهرة": 4183,
      "ناز": 4184,
      "##فيك": 4185,
      "المست": 4186,
      "جديدة": 4187,
      "##ليش": 4188,
      "##دوك": 4189,
      "اولا": 4190,
      "الشعب": 4191,
      "##ليب": 4192,
      "##اهرة": 4193,
      "##اوش": 4194,
      "##انين": 4195,
      "مرض": 4196,
      "شافتو": 4197,
      "##ضري": 4198,
      "##بدل": 4199,
      "##🇲🇦": 4200,
      "##ti": 4201,
      "##اقة": 4202,
      "##لوب": 4203,
      "حوايجها": 4204,
      "يسهل": 4205,
      "##لوا": 4206,
      "خو": 4207,
      "يخليك": 4208,
      "جز": 4209,
      "بجهد": 4210,
      "##اكسي": 4211,
      "##لتي": 4212,
      "يدخل": 4213,
      "ليالي": 4214,
      "هدي": 4215,
      "كايت": 4216,
      "العايلة": 4217,
      "خي": 4218,
      "ايهاب": 4219,
      "une": 4220,
      "##اطر": 4221,
      "نب": 4222,
      "فرحانة": 4223,
      "خالتي": 4224,
      "عز": 4225,
      "حالة": 4226,
      "يعقوب": 4227,
      "يام": 4228,
      "زيدي": 4229,
      "##ارد": 4230,
      "##اكشي": 4231,
      "خار": 4232,
      "ساه": 4233,
      "##ندا": 4234,
      "تقولي": 4235,
      "دنيا": 4236,
      "بليز": 4237,
      "##وجد": 4238,
      "##غط": 4239,
      "طر": 4240,
      "كضحك": 4241,
      "فواحد": 4242,
      "##بوك": 4243,
      "##فا": 4244,
      "فلوس": 4245,
      "##همش": 4246,
      "اسراء": 4247,
      "فالارض": 4248,
      "مغربية": 4249,
      "هادوك": 4250,
      "##اتني": 4251,
      "##ونو": 4252,
      "وير": 4253,
      "يعت": 4254,
      "ai": 4255,
      "حركات": 4256,
      "عرفت": 4257,
      "برج": 4258,
      "الول": 4259,
      "##ريد": 4260,
      "##سا": 4261,
      "##برو": 4262,
      "##نيه": 4263,
      "هل": 4264,
      "لقاها": 4265,
      "تيلي": 4266,
      "رجعت": 4267,
      "ونتا": 4268,
      "##هرو": 4269,
      "يتح": 4270,
      "ومت": 4271,
      "فالك": 4272,
      "##طوات": 4273,
      "##ذب": 4274,
      "##كتور": 4275,
      "طاحت": 4276,
      "##ارا": 4277,
      "##نف": 4278,
      "مكل": 4279,
      "البلاد": 4280,
      "##لبها": 4281,
      "يعرف": 4282,
      "##اقع": 4283,
      "مض": 4284,
      "طبع": 4285,
      "راكي": 4286,
      "جواد": 4287,
      "##لاء": 4288,
      "بوحدها": 4289,
      "##وتر": 4290,
      "##ادير": 4291,
      "##يتر": 4292,
      "سمية": 4293,
      "الالة": 4294,
      "##عاود": 4295,
      "##لاة": 4296,
      "##is": 4297,
      "بعصبية": 4298,
      "حاول": 4299,
      "بغينا": 4300,
      "دف": 4301,
      "##اكة": 4302,
      "وض": 4303,
      "##عرها": 4304,
      "ركب": 4305,
      "هن": 4306,
      "##اهر": 4307,
      "فالص": 4308,
      "##اعو": 4309,
      "حاملة": 4310,
      "المشكل": 4311,
      "زوينين": 4312,
      "ويح": 4313,
      "المص": 4314,
      "سيمانة": 4315,
      "رويا": 4316,
      "##ده": 4317,
      "بزوج": 4318,
      "مزوج": 4319,
      "ابوني": 4320,
      "الحم": 4321,
      "صدرها": 4322,
      "اميرة": 4323,
      "ضحكات": 4324,
      "حن": 4325,
      "اسيل": 4326,
      "##اكم": 4327,
      "ايدو": 4328,
      "##افق": 4329,
      "##قاتش": 4330,
      "فيديها": 4331,
      "##فار": 4332,
      "خاصو": 4333,
      "##ورط": 4334,
      "بلاتي": 4335,
      "متاك": 4336,
      "##فور": 4337,
      "##تين": 4338,
      "يحيى": 4339,
      "ارجوك": 4340,
      "باقا": 4341,
      "رعد": 4342,
      "السر": 4343,
      "تاج": 4344,
      "سنان": 4345,
      "الضو": 4346,
      "فالق": 4347,
      "زير": 4348,
      "فالط": 4349,
      "النع": 4350,
      "##اخد": 4351,
      "فان": 4352,
      "##اكي": 4353,
      "طب": 4354,
      "خارجة": 4355,
      "##ابلة": 4356,
      "معك": 4357,
      "تقلب": 4358,
      "اين": 4359,
      "اودي": 4360,
      "مستحيل": 4361,
      "حجب": 4362,
      "##ديا": 4363,
      "وجلس": 4364,
      "براسو": 4365,
      "سمعت": 4366,
      "تهد": 4367,
      "##ثير": 4368,
      "لكم": 4369,
      "الفوق": 4370,
      "تخلي": 4371,
      "##عا": 4372,
      "خدات": 4373,
      "طريقة": 4374,
      "بيد": 4375,
      "بنفس": 4376,
      "اسيدي": 4377,
      "الاغ": 4378,
      "يوف": 4379,
      "وحط": 4380,
      "صعيب": 4381,
      "صبر": 4382,
      "##اعها": 4383,
      "حين": 4384,
      "##ضاء": 4385,
      "جيه": 4386,
      "سد": 4387,
      "##شاو": 4388,
      "##صرف": 4389,
      "غادة": 4390,
      "كتف": 4391,
      "##زع": 4392,
      "##ابر": 4393,
      "عمرك": 4394,
      "##en": 4395,
      "##كين": 4396,
      "تبادل": 4397,
      "غادين": 4398,
      "خايفة": 4399,
      "##امر": 4400,
      "##زا": 4401,
      "نديرو": 4402,
      "لقاتو": 4403,
      "##لاب": 4404,
      "مريض": 4405,
      "زواج": 4406,
      "متبع": 4407,
      "كما": 4408,
      "مخرج": 4409,
      "بلاما": 4410,
      "##افر": 4411,
      "اشترك": 4412,
      "وليت": 4413,
      "مقدر": 4414,
      "المي": 4415,
      "لسان": 4416,
      "هبطات": 4417,
      "دك": 4418,
      "##حم": 4419,
      "جهة": 4420,
      "واو": 4421,
      "المرض": 4422,
      "بحالي": 4423,
      "مبت": 4424,
      "صحيح": 4425,
      "جبدات": 4426,
      "##مج": 4427,
      "هاجر": 4428,
      "لاخر": 4429,
      "تحرك": 4430,
      "مرات": 4431,
      "فدار": 4432,
      "##جاه": 4433,
      "يرجع": 4434,
      "عاج": 4435,
      "##سيو": 4436,
      "رايع": 4437,
      "لمر": 4438,
      "انسان": 4439,
      "##ليلة": 4440,
      "جاوب": 4441,
      "كيضرب": 4442,
      "غيثة": 4443,
      "العب": 4444,
      "##مشيو": 4445,
      "سمحي": 4446,
      "##اعد": 4447,
      "الطو": 4448,
      "مرا": 4449,
      "واك": 4450,
      "سيدي": 4451,
      "##اسها": 4452,
      "كيجري": 4453,
      "عيت": 4454,
      "القضية": 4455,
      "رمضان": 4456,
      "برافو": 4457,
      "نرجع": 4458,
      "مغاديش": 4459,
      "خدا": 4460,
      "لبارح": 4461,
      "فينا": 4462,
      "مجموع": 4463,
      "##la": 4464,
      "##خاف": 4465,
      "##اغ": 4466,
      "هاداك": 4467,
      "لعب": 4468,
      "تحياتي": 4469,
      "شكل": 4470,
      "عزيزة": 4471,
      "##لح": 4472,
      "##مية": 4473,
      "##هدر": 4474,
      "فراسها": 4475,
      "جد": 4476,
      "التح": 4477,
      "ويام": 4478,
      "لهنا": 4479,
      "حاس": 4480,
      "عيط": 4481,
      "##بغ": 4482,
      "المغربية": 4483,
      "الرجل": 4484,
      "اخت": 4485,
      "الهد": 4486,
      "##اهيم": 4487,
      "لنا": 4488,
      "قاطع": 4489,
      "##لقا": 4490,
      "##رع": 4491,
      "وبدا": 4492,
      "حبيبي": 4493,
      "تصرف": 4494,
      "وعلاش": 4495,
      "ناصر": 4496,
      "سمر": 4497,
      "كيص": 4498,
      "طويل": 4499,
      "##بري": 4500,
      "توصل": 4501,
      "قاص": 4502,
      "##قب": 4503,
      "خوك": 4504,
      "روعة": 4505,
      "جاية": 4506,
      "دخلي": 4507,
      "##موسية": 4508,
      "عادل": 4509,
      "زياد": 4510,
      "وشكرا": 4511,
      "الرب": 4512,
      "##غراب": 4513,
      "ليل": 4514,
      "نضال": 4515,
      "بالخ": 4516,
      "##ينيش": 4517,
      "سكينة": 4518,
      "عري": 4519,
      "دع": 4520,
      "##فاي": 4521,
      "بحالا": 4522,
      "ضد": 4523,
      "كرشها": 4524,
      "##طيب": 4525,
      "بسباب": 4526,
      "##وليس": 4527,
      "بعدما": 4528,
      "بوحدي": 4529,
      "##لوك": 4530,
      "خفيفة": 4531,
      "متع": 4532,
      "##اهد": 4533,
      "لحمام": 4534,
      "دايرين": 4535,
      "ويت": 4536,
      "هدى": 4537,
      "##الحة": 4538,
      "مالي": 4539,
      "##نج": 4540,
      "تفرج": 4541,
      "الظ": 4542,
      "وخل": 4543,
      "موج": 4544,
      "##دع": 4545,
      "##هضرو": 4546,
      "##كرة": 4547,
      "نقدر": 4548,
      "##نسا": 4549,
      "##ولها": 4550,
      "كتعرف": 4551,
      "عمرها": 4552,
      "##فق": 4553,
      "مباش": 4554,
      "واص": 4555,
      "##ولك": 4556,
      "مكانش": 4557,
      "وشاف": 4558,
      "جلال": 4559,
      "##درو": 4560,
      "اصاحبي": 4561,
      "ولدك": 4562,
      "قدامي": 4563,
      "##دود": 4564,
      "تصدم": 4565,
      "انف": 4566,
      "ماكاين": 4567,
      "باها": 4568,
      "صور": 4569,
      "انيس": 4570,
      "##ضيع": 4571,
      "عيب": 4572,
      "سعيد": 4573,
      "##ra": 4574,
      "تكوني": 4575,
      "##قيت": 4576,
      "كنبغيك": 4577,
      "وبقات": 4578,
      "##ىء": 4579,
      "سوق": 4580,
      "توحشتك": 4581,
      "##نش": 4582,
      "مسح": 4583,
      "موس": 4584,
      "مخل": 4585,
      "##ابو": 4586,
      "بطريقة": 4587,
      "بيناتهم": 4588,
      "##اييل": 4589,
      "##هيلة": 4590,
      "لبيتها": 4591,
      "يكمل": 4592,
      "الخط": 4593,
      "وين": 4594,
      "##ملة": 4595,
      "فديك": 4596,
      "##الت": 4597,
      "صفاء": 4598,
      "طرف": 4599,
      "ناق": 4600,
      "الحر": 4601,
      "نسرين": 4602,
      "##افع": 4603,
      "غم": 4604,
      "##انون": 4605,
      "مشترك": 4606,
      "قالك": 4607,
      "السب": 4608,
      "فاتي": 4609,
      "فالت": 4610,
      "اشمن": 4611,
      "لهم": 4612,
      "المراة": 4613,
      "##دان": 4614,
      "شري": 4615,
      "هانا": 4616,
      "تط": 4617,
      "##جو": 4618,
      "##تيل": 4619,
      "ودي": 4620,
      "كيقول": 4621,
      "فكرة": 4622,
      "راجلك": 4623,
      "معصب": 4624,
      "فكل": 4625,
      "بزربة": 4626,
      "الايام": 4627,
      "بالص": 4628,
      "بغاو": 4629,
      "ناعس": 4630,
      "فالب": 4631,
      "نوح": 4632,
      "##درسة": 4633,
      "فراسك": 4634,
      "##اطة": 4635,
      "تحس": 4636,
      "تدخل": 4637,
      "رجاء": 4638,
      "زادت": 4639,
      "##ازي": 4640,
      "فالدار": 4641,
      "##برد": 4642,
      "بالغ": 4643,
      "##زقك": 4644,
      "##لبو": 4645,
      "عيشة": 4646,
      "##ماع": 4647,
      "عاش": 4648,
      "هزها": 4649,
      "محتاج": 4650,
      "حياتك": 4651,
      "النفس": 4652,
      "حسيت": 4653,
      "علاقة": 4654,
      "معاكم": 4655,
      "##اتم": 4656,
      "كيما": 4657,
      "لراس": 4658,
      "##كرو": 4659,
      "الاست": 4660,
      "الذي": 4661,
      "ايدها": 4662,
      "##ابق": 4663,
      "والس": 4664,
      "خاصة": 4665,
      "##توا": 4666,
      "##جين": 4667,
      "سلامتك": 4668,
      "الطبلة": 4669,
      "اتمنى": 4670,
      "فاس": 4671,
      "الانسان": 4672,
      "فداك": 4673,
      "الراس": 4674,
      "##سوة": 4675,
      "وهز": 4676,
      "تاو": 4677,
      "صاحب": 4678,
      "فالد": 4679,
      "تهضر": 4680,
      "شعرو": 4681,
      "##بطو": 4682,
      "لقاو": 4683,
      "بيديه": 4684,
      "##رجم": 4685,
      "##حبة": 4686,
      "البال": 4687,
      "ونت": 4688,
      "##وفيا": 4689,
      "بالضحك": 4690,
      "سند": 4691,
      "الاشتراك": 4692,
      "الصغ": 4693,
      "##ضى": 4694,
      "##يلة": 4695,
      "التعلي": 4696,
      "ملك": 4697,
      "aime": 4698,
      "نعاس": 4699,
      "##حاول": 4700,
      "الزواج": 4701,
      "ورجعات": 4702,
      "كيتس": 4703,
      "والت": 4704,
      "##اركة": 4705,
      "##ضات": 4706,
      "الاد": 4707,
      "##اخر": 4708,
      "لاباس": 4709,
      "عرو": 4710,
      "لكوزينة": 4711,
      "##ارق": 4712,
      "الراجل": 4713,
      "الكلام": 4714,
      "##ريبا": 4715,
      "وسلم": 4716,
      "##بوع": 4717,
      "متي": 4718,
      "##حب": 4719,
      "رجليه": 4720,
      "تيت": 4721,
      "حاسة": 4722,
      "وجهك": 4723,
      "الريكس": 4724,
      "##ديش": 4725,
      "هاكاك": 4726,
      "##شم": 4727,
      "##قيتش": 4728,
      "رس": 4729,
      "العراق": 4730,
      "##or": 4731,
      "حاض": 4732,
      "ملامح": 4733,
      "##ونها": 4734,
      "##توش": 4735,
      "##سط": 4736,
      "##ارب": 4737,
      "طلعت": 4738,
      "##دب": 4739,
      "##ولية": 4740,
      "لمن": 4741,
      "مين": 4742,
      "فمك": 4743,
      "ضي": 4744,
      "##مهور": 4745,
      "غلط": 4746,
      "##داع": 4747,
      "براء": 4748,
      "مفهم": 4749,
      "ندى": 4750,
      "سروال": 4751,
      "##شوفو": 4752,
      "كيفما": 4753,
      "الكو": 4754,
      "المسلمين": 4755,
      "ابتسام": 4756,
      "وهبط": 4757,
      "فالمغرب": 4758,
      "هازة": 4759,
      "##مه": 4760,
      "الماس": 4761,
      "جمعات": 4762,
      "صورة": 4763,
      "ميت": 4764,
      "##يرت": 4765,
      "تبسم": 4766,
      "منت": 4767,
      "ماعرفتش": 4768,
      "##لعبو": 4769,
      "##التي": 4770,
      "##ذة": 4771,
      "ولاو": 4772,
      "لفر": 4773,
      "العالمين": 4774,
      "نك": 4775,
      "الطريقة": 4776,
      "كتقول": 4777,
      "كاينين": 4778,
      "عيد": 4779,
      "##ربات": 4780,
      "دون": 4781,
      "بغيتك": 4782,
      "جاك": 4783,
      "شافو": 4784,
      "ودابا": 4785,
      "دقايق": 4786,
      "##جاج": 4787,
      "مثل": 4788,
      "الغني": 4789,
      "كيتسنا": 4790,
      "ابر": 4791,
      "خدمة": 4792,
      "الولد": 4793,
      "شمس": 4794,
      "وله": 4795,
      "نبيل": 4796,
      "بنتك": 4797,
      "##وسط": 4798,
      "وات": 4799,
      "ايات": 4800,
      "واب": 4801,
      "##ذر": 4802,
      "محت": 4803,
      "##كونو": 4804,
      "تاب": 4805,
      "مخلو": 4806,
      "##اكلة": 4807,
      "قوية": 4808,
      "نتمنى": 4809,
      "بتاسم": 4810,
      "رحمة": 4811,
      "جبه": 4812,
      "##افها": 4813,
      "##لوش": 4814,
      "قتل": 4815,
      "حسب": 4816,
      "تبس": 4817,
      "دري": 4818,
      "فاقت": 4819,
      "##رش": 4820,
      "الاولى": 4821,
      "عالم": 4822,
      "بعضي": 4823,
      "خافت": 4824,
      "ليس": 4825,
      "حمد": 4826,
      "شدو": 4827,
      "لكي": 4828,
      "##اور": 4829,
      "##دمو": 4830,
      "##طير": 4831,
      "بغضب": 4832,
      "##ميز": 4833,
      "رتاح": 4834,
      "ونعم": 4835,
      "ملاك": 4836,
      "##ينك": 4837,
      "الاص": 4838,
      "##ديم": 4839,
      "ناي": 4840,
      "##ضح": 4841,
      "احد": 4842,
      "بالس": 4843,
      "وليتي": 4844,
      "##صال": 4845,
      "لبنت": 4846,
      "##فرح": 4847,
      "##لال": 4848,
      "حو": 4849,
      "كولو": 4850,
      "##لوى": 4851,
      "##te": 4852,
      "ثاني": 4853,
      "##افيش": 4854,
      "تفهم": 4855,
      "تليفون": 4856,
      "تعلم": 4857,
      "وصلت": 4858,
      "خلينا": 4859,
      "خصرها": 4860,
      "معارف": 4861,
      "سام": 4862,
      "سعاد": 4863,
      "صوفيا": 4864,
      "وبغ": 4865,
      "عايل": 4866,
      "جرب": 4867,
      "بري": 4868,
      "##ماعي": 4869,
      "والج": 4870,
      "##قيس": 4871,
      "يعتقد": 4872,
      "##اجد": 4873,
      "وليدات": 4874,
      "يبان": 4875,
      "##ازا": 4876,
      "خاصها": 4877,
      "##اتكم": 4878,
      "كتسمع": 4879,
      "تبغي": 4880,
      "دق": 4881,
      "##وع": 4882,
      "تهز": 4883,
      "مباشرة": 4884,
      "منه": 4885,
      "ترك": 4886,
      "##حرك": 4887,
      "وراها": 4888,
      "لوج": 4889,
      "الماتش": 4890,
      "كنعرف": 4891,
      "ايديه": 4892,
      "تقريبا": 4893,
      "العرس": 4894,
      "كتن": 4895,
      "لمس": 4896,
      "بلاصتها": 4897,
      "اليلة": 4898,
      "بيديها": 4899,
      "نغ": 4900,
      "وام": 4901,
      "##مون": 4902,
      "كيجي": 4903,
      "##بعو": 4904,
      "هاه": 4905,
      "ريقها": 4906,
      "تجمع": 4907,
      "خرا": 4908,
      "سكتي": 4909,
      "بسب": 4910,
      "عندكم": 4911,
      "لبع": 4912,
      "الماء": 4913,
      "يزيد": 4914,
      "لحال": 4915,
      "خفيف": 4916,
      "نوع": 4917,
      "##ديرو": 4918,
      "طالع": 4919,
      "ياكما": 4920,
      "خس": 4921,
      "الدي": 4922,
      "وتعجب": 4923,
      "وزاد": 4924,
      "ريا": 4925,
      "ديمنة": 4926,
      "كحل": 4927,
      "ضحكت": 4928,
      "كند": 4929,
      "ميمكنش": 4930,
      "الخل": 4931,
      "مشى": 4932,
      "الحيط": 4933,
      "برك": 4934,
      "ياخد": 4935,
      "##ريبة": 4936,
      "##ميس": 4937,
      "##ربح": 4938,
      "رغم": 4939,
      "##اشة": 4940,
      "الحقيقة": 4941,
      "قالو": 4942,
      "لمع": 4943,
      "موراها": 4944,
      "##همس": 4945,
      "عهد": 4946,
      "##قع": 4947,
      "مالكي": 4948,
      "النعاس": 4949,
      "كيهضر": 4950,
      "##لوم": 4951,
      "بالش": 4952,
      "تبقى": 4953,
      "اتاي": 4954,
      "مريضة": 4955,
      "بكري": 4956,
      "##اريخ": 4957,
      "عايلة": 4958,
      "كتفكر": 4959,
      "حبس": 4960,
      "الزين": 4961,
      "##الها": 4962,
      "بمع": 4963,
      "كلي": 4964,
      "مافهم": 4965,
      "ديرو": 4966,
      "اميمة": 4967,
      "بالزربة": 4968,
      "##وتيوب": 4969,
      "دوي": 4970,
      "##بدا": 4971,
      "الغرفة": 4972,
      "##ماغ": 4973,
      "##ظم": 4974,
      "نهضر": 4975,
      "بدي": 4976,
      "وقفت": 4977,
      "##بز": 4978,
      "عدنان": 4979,
      "##ريا": 4980,
      "كتهضر": 4981,
      "نجمة": 4982,
      "##جبو": 4983,
      "##لبي": 4984,
      "فيكم": 4985,
      "تفك": 4986,
      "ماتش": 4987,
      "كتبان": 4988,
      "غس": 4989,
      "##وهرة": 4990,
      "##عجبني": 4991,
      "بث": 4992,
      "يحفض": 4993,
      "تشوفي": 4994,
      "الطي": 4995,
      "بالض": 4996,
      "متابع": 4997,
      "الحي": 4998,
      "بالوسيم": 4999,
      "##بيطار": 5000,
      "يله": 5001,
      "بنتها": 5002,
      "كتقلب": 5003,
      "البار": 5004,
      "##حق": 5005,
      "مزيانة": 5006,
      "يتع": 5007,
      "اعت": 5008,
      "اقبال": 5009,
      "بالجهد": 5010,
      "##هوش": 5011,
      "الوط": 5012,
      "##اعدة": 5013,
      "الكرسي": 5014,
      "باستغراب": 5015,
      "##نقة": 5016,
      "موت": 5017,
      "كلامك": 5018,
      "جيهت": 5019,
      "خطو": 5020,
      "ضو": 5021,
      "علاء": 5022,
      "لدرجة": 5023,
      "##عادة": 5024,
      "##ad": 5025,
      "يشفيك": 5026,
      "الوكيل": 5027,
      "ابو": 5028,
      "##لمي": 5029,
      "##ارع": 5030,
      "مدام": 5031,
      "##بيض": 5032,
      "##ارية": 5033,
      "ويد": 5034,
      "ودار": 5035,
      "فبال": 5036,
      "##بعها": 5037,
      "##بني": 5038,
      "يكن": 5039,
      "كتبغي": 5040,
      "مدير": 5041,
      "##بارك": 5042,
      "نعم": 5043,
      "بوحدو": 5044,
      "لجي": 5045,
      "استمر": 5046,
      "##نامج": 5047,
      "ارو": 5048,
      "توقف": 5049,
      "واض": 5050,
      "حيدات": 5051,
      "وبقا": 5052,
      "##دامة": 5053,
      "امام": 5054,
      "##يك": 5055,
      "المنت": 5056,
      "##قاد": 5057,
      "صاف": 5058,
      "صغار": 5059,
      "الجديد": 5060,
      "##ناها": 5061,
      "لاعب": 5062,
      "الواليدة": 5063,
      "زمان": 5064,
      "##ناتي": 5065,
      "##زيف": 5066,
      "كيبغي": 5067,
      "ولدها": 5068,
      "ختك": 5069,
      "##طيني": 5070,
      "##لومات": 5071,
      "نطقات": 5072,
      "خوتي": 5073,
      "##ch": 5074,
      "##ريف": 5075,
      "##غة": 5076,
      "الكاس": 5077,
      "كس": 5078,
      "سن": 5079,
      "فتي": 5080,
      "خاصنا": 5081,
      "الجنة": 5082,
      "عنقو": 5083,
      "ترتاح": 5084,
      "شفتو": 5085,
      "كملات": 5086,
      "##وهم": 5087,
      "جايا": 5088,
      "##ضن": 5089,
      "نسي": 5090,
      "لانه": 5091,
      "##خلص": 5092,
      "تحط": 5093,
      "فرحان": 5094,
      "##جا": 5095,
      "##ركز": 5096,
      "لون": 5097,
      "صوتو": 5098,
      "بالخير": 5099,
      "گاع": 5100,
      "اماما": 5101,
      "وغير": 5102,
      "عمران": 5103,
      "وشنو": 5104,
      "##هق": 5105,
      "نزلو": 5106,
      "غزالة": 5107,
      "انور": 5108,
      "دورات": 5109,
      "##ترام": 5110,
      "عطيني": 5111,
      "سدات": 5112,
      "##سيقى": 5113,
      "##رجس": 5114,
      "##نزل": 5115,
      "##ريح": 5116,
      "##ينيك": 5117,
      "بلاصتو": 5118,
      "##اعر": 5119,
      "##الى": 5120,
      "حطو": 5121,
      "الضحكة": 5122,
      "##غب": 5123,
      "بسي": 5124,
      "وشافت": 5125,
      "شوفو": 5126,
      "##زاء": 5127,
      "بالد": 5128,
      "تكل": 5129,
      "بيخير": 5130,
      "##نون": 5131,
      "وحنا": 5132,
      "##ليون": 5133,
      "سوال": 5134,
      "بتاسمات": 5135,
      "فالش": 5136,
      "حطها": 5137,
      "##🇩🇿": 5138,
      "عنيها": 5139,
      "قمر": 5140,
      "بوك": 5141,
      "##وين": 5142,
      "مكم": 5143,
      "يعطي": 5144,
      "##طفى": 5145,
      "صوتها": 5146,
      "موراه": 5147,
      "وسندا": 5148,
      "يجيب": 5149,
      "التق": 5150,
      "جهاد": 5151,
      "البرد": 5152,
      "##اضية": 5153,
      "خلاتو": 5154,
      "خايبة": 5155,
      "لوال": 5156,
      "ثم": 5157,
      "##ورت": 5158,
      "زهور": 5159,
      "الصراحة": 5160,
      "براسي": 5161,
      "لاسف": 5162,
      "رجعو": 5163,
      "الاط": 5164,
      "عت": 5165,
      "رشي": 5166,
      "احبك": 5167,
      "سماح": 5168,
      "ودا": 5169,
      "##متي": 5170,
      "كتحاول": 5171,
      "ماقدر": 5172,
      "تدير": 5173,
      "راجلها": 5174,
      "نست": 5175,
      "##اصة": 5176,
      "طلعو": 5177,
      "همس": 5178,
      "فالخ": 5179,
      "عينيك": 5180,
      "كوتر": 5181,
      "##سبوك": 5182,
      "متخ": 5183,
      "##طيل": 5184,
      "ﺍﻟ": 5185,
      "مجموعين": 5186,
      "##جه": 5187,
      "الامر": 5188,
      "كنبغي": 5189,
      "نصي": 5190,
      "القران": 5191,
      "لاكن": 5192,
      "##مري": 5193,
      "قط": 5194,
      "##روب": 5195,
      "##راض": 5196,
      "##نكها": 5197,
      "وناضت": 5198,
      "دين": 5199,
      "كيقلب": 5200,
      "دعم": 5201,
      "##نسية": 5202,
      "تولي": 5203,
      "##معين": 5204,
      "حتي": 5205,
      "الكت": 5206,
      "الواليد": 5207,
      "كنحس": 5208,
      "صاك": 5209,
      "##يلا": 5210,
      "فاروق": 5211,
      "واه": 5212,
      "##شى": 5213,
      "ابراهيم": 5214,
      "##ma": 5215,
      "يفرحك": 5216,
      "30": 5217,
      "مصدومة": 5218,
      "##ثار": 5219,
      "كلنا": 5220,
      "ايمان": 5221,
      "وشي": 5222,
      "##زت": 5223,
      "ذلك": 5224,
      "قلبك": 5225,
      "يوفقك": 5226,
      "##هيب": 5227,
      "##نيتي": 5228,
      "##لاتو": 5229,
      "##وى": 5230,
      "دوا": 5231,
      "خليك": 5232,
      "سلط": 5233,
      "لوطو": 5234,
      "مزير": 5235,
      "صلاح": 5236,
      "الولي": 5237,
      "هان": 5238,
      "ريحة": 5239,
      "##ادا": 5240,
      "تاهو": 5241,
      "##سيل": 5242,
      "فالج": 5243,
      "مدات": 5244,
      "الفو": 5245,
      "##حمل": 5246,
      "##re": 5247,
      "وحد": 5248,
      "نتع": 5249,
      "الار": 5250,
      "نسيت": 5251,
      "##زير": 5252,
      "معي": 5253,
      "خدامة": 5254,
      "كفاش": 5255,
      "##هود": 5256,
      "مكره": 5257,
      "شفتك": 5258,
      "نموت": 5259,
      "##ورك": 5260,
      "##خو": 5261,
      "البحر": 5262,
      "##لقاو": 5263,
      "وعد": 5264,
      "##يبة": 5265,
      "لمغرب": 5266,
      "##خات": 5267,
      "##ربيق": 5268,
      "العش": 5269,
      "لحد": 5270,
      "السيدة": 5271,
      "##ومة": 5272,
      "الاخر": 5273,
      "##زيز": 5274,
      "تصو": 5275,
      "عاون": 5276,
      "نرجس": 5277,
      "##راي": 5278,
      "يضرب": 5279,
      "احلام": 5280,
      "ونز": 5281,
      "القو": 5282,
      "بسمة": 5283,
      "كيحس": 5284,
      "رزان": 5285,
      "العد": 5286,
      "اسلام": 5287,
      "##باد": 5288,
      "تلفت": 5289,
      "راجلي": 5290,
      "##اذ": 5291,
      "##قرب": 5292,
      "فرج": 5293,
      "ربع": 5294,
      "سميتها": 5295,
      "بعدات": 5296,
      "عيسى": 5297,
      "الات": 5298,
      "عامر": 5299,
      "فوجها": 5300,
      "ريان": 5301,
      "الصمت": 5302,
      "الثاني": 5303,
      "##لقى": 5304,
      "بيض": 5305,
      "زاين": 5306,
      "##قوليك": 5307,
      "معامن": 5308,
      "تنوض": 5309,
      "##موعة": 5310,
      "خلق": 5311,
      "فلو": 5312,
      "##طها": 5313,
      "خولة": 5314,
      "اشراق": 5315,
      "ارح": 5316,
      "##ورات": 5317,
      "ندخل": 5318,
      "اشرف": 5319,
      "غادية": 5320,
      "الاء": 5321,
      "الحوايج": 5322,
      "مون": 5323,
      "تيش": 5324,
      "##نوان": 5325,
      "كنزة": 5326,
      "شفتها": 5327,
      "تماك": 5328,
      "بحر": 5329,
      "ايديها": 5330,
      "##ذكر": 5331,
      "دخ": 5332,
      "راهم": 5333,
      "لات": 5334,
      "نشوفك": 5335,
      "فرصة": 5336,
      "سه": 5337,
      "##لمو": 5338,
      "حدايا": 5339,
      "##اهش": 5340,
      "نعي": 5341,
      "الصالحة": 5342,
      "حالتها": 5343,
      "##ريمان": 5344,
      "الحظة": 5345,
      "##مشى": 5346,
      "##ريه": 5347,
      "وربي": 5348,
      "##لاها": 5349,
      "##ثل": 5350,
      "الجي": 5351,
      "حوايجو": 5352,
      "نجيب": 5353,
      "الال": 5354,
      "باع": 5355,
      "اشتراك": 5356,
      "حاجبو": 5357,
      "##روح": 5358,
      "##روا": 5359,
      "##هيه": 5360,
      "##هان": 5361,
      "طبعا": 5362,
      "اريج": 5363,
      "##ولين": 5364,
      "تبان": 5365,
      "تبدل": 5366,
      "النوع": 5367,
      "كاد": 5368,
      "ملا": 5369,
      "اغنية": 5370,
      "##فاء": 5371,
      "الكون": 5372,
      "والش": 5373,
      "##عها": 5374,
      "ضحكة": 5375,
      "يطلع": 5376,
      "##افيها": 5377,
      "كيغ": 5378,
      "عمرني": 5379,
      "بات": 5380,
      "##سنا": 5381,
      "##لوح": 5382,
      "خلع": 5383,
      "##قاو": 5384,
      "##le": 5385,
      "عال": 5386,
      "ساكتة": 5387,
      "##ظن": 5388,
      "معنديش": 5389,
      "نزلت": 5390,
      "جنا": 5391,
      "فهمت": 5392,
      "صدق": 5393,
      "مالها": 5394,
      "##لوة": 5395,
      "البط": 5396,
      "كوثر": 5397,
      "اصبح": 5398,
      "خونا": 5399,
      "تعليق": 5400,
      "ودخلات": 5401,
      "##لاو": 5402,
      "##صار": 5403,
      "بسم": 5404,
      "مكلخ": 5405,
      "كيد": 5406,
      "عينها": 5407,
      "اكتر": 5408,
      "كيتح": 5409,
      "هاذي": 5410,
      "بالعكس": 5411,
      "بنظ": 5412,
      "فنان": 5413,
      "جيد": 5414,
      "شتي": 5415,
      "بواحد": 5416,
      "لوح": 5417,
      "##سب": 5418,
      "##اعي": 5419,
      "وكاي": 5420,
      "مشيتي": 5421,
      "يرضي": 5422,
      "سميتو": 5423,
      "نار": 5424,
      "القهوة": 5425,
      "وذ": 5426,
      "متش": 5427,
      "فراسو": 5428,
      "ندم": 5429,
      "جميل": 5430,
      "فيدو": 5431,
      "مثلا": 5432,
      "شعب": 5433,
      "الامور": 5434,
      "##خرا": 5435,
      "##كونش": 5436,
      "شفايفو": 5437,
      "هضرة": 5438,
      "##قيل": 5439,
      "الحمام": 5440,
      "منصف": 5441,
      "فيديه": 5442,
      "شرب": 5443,
      "##ره": 5444,
      "قالها": 5445,
      "##اونك": 5446,
      "هاهو": 5447,
      "##اينة": 5448,
      "خليها": 5449,
      "باغين": 5450,
      "##وض": 5451,
      "صبح": 5452,
      "##غيب": 5453,
      "لارض": 5454,
      "عقل": 5455,
      "##صلو": 5456,
      "وعط": 5457,
      "خبار": 5458,
      "خت": 5459,
      "طوموبيل": 5460,
      "والد": 5461,
      "##دوا": 5462,
      "##فز": 5463,
      "سميرة": 5464,
      "##بداو": 5465,
      "##هبط": 5466,
      "ماو": 5467,
      "ماماك": 5468,
      "##لقة": 5469,
      "مابا": 5470,
      "##رم": 5471,
      "السم": 5472,
      "تبقا": 5473,
      "اهم": 5474,
      "رم": 5475,
      "ماكي": 5476,
      "بصدمة": 5477,
      "الوالدين": 5478,
      "لحظة": 5479,
      "عالي": 5480,
      "احنا": 5481,
      "ونع": 5482,
      "##طرة": 5483,
      "اخيرا": 5484,
      "##ازة": 5485,
      "بديت": 5486,
      "##هج": 5487,
      "الواحد": 5488,
      "##يها": 5489,
      "وتش": 5490,
      "ثلا": 5491,
      "ومات": 5492,
      "صديق": 5493,
      "شرف": 5494,
      "عطاها": 5495,
      "50": 5496,
      "هبة": 5497,
      "##انات": 5498,
      "تزيد": 5499,
      "معروف": 5500,
      "نسمع": 5501,
      "وعي": 5502,
      "فلب": 5503,
      "صر": 5504,
      "##جن": 5505,
      "جالسين": 5506,
      "نفسها": 5507,
      "الوضع": 5508,
      "الطب": 5509,
      "مابغيتش": 5510,
      "اذن": 5511,
      "لمح": 5512,
      "##ضحكو": 5513,
      "فرنسا": 5514,
      "جينا": 5515,
      "جان": 5516,
      "الانت": 5517,
      "##قطع": 5518,
      "كيشوفو": 5519,
      "وجهي": 5520,
      "الاسلام": 5521,
      "##قتل": 5522,
      "تبسمات": 5523,
      "نيتك": 5524,
      "بما": 5525,
      "طاكسي": 5526,
      "لاص": 5527,
      "ضارت": 5528,
      "بدر": 5529,
      "فور": 5530,
      "##ربق": 5531,
      "##عه": 5532,
      "فجي": 5533,
      "كوني": 5534,
      "طلقات": 5535,
      "كنقول": 5536,
      "كولي": 5537,
      "لفلوس": 5538,
      "فلا": 5539,
      "الياس": 5540,
      "الوحيد": 5541,
      "ميس": 5542,
      "منقدرش": 5543,
      "دقيقة": 5544,
      "ناح": 5545,
      "انهم": 5546,
      "حاضي": 5547,
      "تاكل": 5548,
      "الكبير": 5549,
      "بتو": 5550,
      "ذي": 5551,
      "الاقل": 5552,
      "مغت": 5553,
      "جهينة": 5554,
      "##بغيش": 5555,
      "بتس": 5556,
      "رافاييل": 5557,
      "##كوم": 5558,
      "وقفو": 5559,
      "لدوش": 5560,
      "##لاط": 5561,
      "وهوما": 5562,
      "كيحاول": 5563,
      "فير": 5564,
      "يديرو": 5565,
      "بوسة": 5566,
      "##اوين": 5567,
      "تاس": 5568,
      "يوصل": 5569,
      "##جرة": 5570,
      "بخطوات": 5571,
      "غزلان": 5572,
      "دعي": 5573,
      "بشر": 5574,
      "غيث": 5575,
      "تستاهل": 5576,
      "##اريو": 5577,
      "يهديك": 5578,
      "هرب": 5579,
      "اها": 5580,
      "مرب": 5581,
      "تلعب": 5582,
      "سندس": 5583,
      "##جاو": 5584,
      "##فاهم": 5585,
      "فشكل": 5586,
      "##قيقي": 5587,
      "هذاك": 5588,
      "احساس": 5589,
      "الحرام": 5590,
      "##ياها": 5591,
      "مقابل": 5592,
      "تقو": 5593,
      "لين": 5594,
      "حز": 5595,
      "وعند": 5596,
      "مدر": 5597,
      "##غفر": 5598,
      "صاحبي": 5599,
      "مايمكنش": 5600,
      "الدولة": 5601,
      "##اكن": 5602,
      "واعرة": 5603,
      "غادا": 5604,
      "ويش": 5605,
      "بخوف": 5606,
      "الصورة": 5607,
      "حاب": 5608,
      "تقدم": 5609,
      "كنتمنى": 5610,
      "نيار": 5611,
      "كدور": 5612,
      "##ءهءه": 5613,
      "تنت": 5614,
      "##لمك": 5615,
      "بلاش": 5616,
      "قليل": 5617,
      "يديك": 5618,
      "الكي": 5619,
      "العربي": 5620,
      "فبلاصتها": 5621,
      "فالباب": 5622,
      "ضربات": 5623,
      "رمي": 5624,
      "هزت": 5625,
      "مروان": 5626,
      "الوداد": 5627,
      "ساكت": 5628,
      "معها": 5629,
      "التر": 5630,
      "مصطفى": 5631,
      "قطعات": 5632,
      "سكتات": 5633,
      "صيف": 5634,
      "يهدي": 5635,
      "جري": 5636,
      "عارفين": 5637,
      "كتغوت": 5638,
      "تبد": 5639,
      "دعو": 5640,
      "خارجين": 5641,
      "12": 5642,
      "محل": 5643,
      "via": 5644,
      "العرب": 5645,
      "سهام": 5646,
      "##نيك": 5647,
      "كام": 5648,
      "وخلي": 5649,
      "الهدرة": 5650,
      "صخر": 5651,
      "شفاء": 5652,
      "اولي": 5653,
      "جزاير": 5654,
      "طوب": 5655,
      "بضحك": 5656,
      "بوحدك": 5657,
      "##بيدة": 5658,
      "رايعة": 5659,
      "##ارس": 5660,
      "وياك": 5661,
      "خايف": 5662,
      "##دون": 5663,
      "مخنزر": 5664,
      "كتغ": 5665,
      "العرو": 5666,
      "تكلم": 5667,
      "اية": 5668,
      "يبارك": 5669,
      "صعيبة": 5670,
      "فرحت": 5671,
      "كحلة": 5672,
      "وهما": 5673,
      "الشيطان": 5674,
      "حجبانو": 5675,
      "سمي": 5676,
      "عقد": 5677,
      "##الب": 5678,
      "ليث": 5679,
      "ربح": 5680,
      "الدرجة": 5681,
      "بغيتو": 5682,
      "الاخير": 5683,
      "الصوت": 5684,
      "الصبر": 5685,
      "ودارت": 5686,
      "de": 5687,
      "باح": 5688,
      "##حاجة": 5689,
      "فرق": 5690,
      "فعينيه": 5691,
      "غمضات": 5692,
      "حك": 5693,
      "كلامو": 5694,
      "لر": 5695,
      "##عرفش": 5696,
      "مجرد": 5697,
      "خوت": 5698,
      "داخلة": 5699,
      "##عرفو": 5700,
      "##قرا": 5701,
      "احب": 5702,
      "طاهرة": 5703,
      "##زار": 5704,
      "تمن": 5705,
      "اذ": 5706,
      "كيلعب": 5707,
      "##ادية": 5708,
      "##اغي": 5709,
      "##هرس": 5710,
      "بينا": 5711,
      "جهد": 5712,
      "لوقت": 5713,
      "بديك": 5714,
      "##خلع": 5715,
      "##وليا": 5716,
      "وصدي": 5717,
      "طيح": 5718,
      "حسام": 5719,
      "وعينيها": 5720,
      "حاطة": 5721,
      "##هاها": 5722,
      "ترج": 5723,
      "والب": 5724,
      "تعرفي": 5725,
      "عوين": 5726,
      "عنقاتو": 5727,
      "برود": 5728,
      "يهضر": 5729,
      "##ناق": 5730,
      "وغادي": 5731,
      "دياب": 5732,
      "##عود": 5733,
      "بشكل": 5734,
      "بعينيها": 5735,
      "فينما": 5736,
      "وكات": 5737,
      "يبقى": 5738,
      "##نجة": 5739,
      "كيطلع": 5740,
      "حياتها": 5741,
      "دكشي": 5742,
      "عبير": 5743,
      "وبين": 5744,
      "المكان": 5745,
      "بعينيه": 5746,
      "لازم": 5747,
      "امل": 5748,
      "سنوات": 5749,
      "يكونو": 5750,
      "جنبها": 5751,
      "قبال": 5752,
      "سنانو": 5753,
      "البو": 5754,
      "الكلمة": 5755,
      "##كلة": 5756,
      "اختك": 5757,
      "##اشر": 5758,
      "لطي": 5759,
      "والا": 5760,
      "تكمل": 5761,
      "##زاف": 5762,
      "طبي": 5763,
      "كتلعب": 5764,
      "حتال": 5765,
      "##جم": 5766,
      "نبقا": 5767,
      "قناتك": 5768,
      "تلاح": 5769,
      "##جاوب": 5770,
      "تري": 5771,
      "عرس": 5772,
      "##صبة": 5773,
      "بجدية": 5774,
      "عنداك": 5775,
      "اخالتي": 5776,
      "مهند": 5777,
      "##li": 5778,
      "موضوع": 5779,
      "فها": 5780,
      "بصحتك": 5781,
      "حنين": 5782,
      "القصر": 5783,
      "بارد": 5784,
      "صبري": 5785,
      "زايد": 5786,
      "##جاد": 5787,
      "نريمان": 5788,
      "15": 5789,
      "##ثي": 5790,
      "البوليس": 5791,
      "شاب": 5792,
      "بهاء": 5793,
      "بيناتنا": 5794,
      "كتكون": 5795,
      "لعبة": 5796,
      "فهمتي": 5797,
      "##ظهر": 5798,
      "كتص": 5799,
      "السو": 5800,
      "سناء": 5801,
      "جيب": 5802,
      "خنز": 5803,
      "كور": 5804,
      "هذي": 5805,
      "جع": 5806,
      "قبلة": 5807,
      "##يدير": 5808,
      "والف": 5809,
      "مسلم": 5810,
      "واقفين": 5811,
      "بمعنى": 5812,
      "حواجبو": 5813,
      "توج": 5814,
      "##فال": 5815,
      "قصة": 5816,
      "##طوموبيل": 5817,
      "##واء": 5818,
      "##طوي": 5819,
      "تقاد": 5820,
      "جنة": 5821,
      "وتي": 5822,
      "ورج": 5823,
      "لناس": 5824,
      "خش": 5825,
      "اليد": 5826,
      "##عاد": 5827,
      "##طرو": 5828,
      "##طية": 5829,
      "##حين": 5830,
      "ماعارف": 5831,
      "بحالو": 5832,
      "زد": 5833,
      "تويتر": 5834,
      "حلقة": 5835,
      "لكت": 5836,
      "##ذاب": 5837,
      "خلاص": 5838,
      "يسمع": 5839,
      "فلي": 5840,
      "##يرتان": 5841,
      "كتجي": 5842,
      "ومس": 5843,
      "السيارة": 5844,
      "جلست": 5845,
      "##لامي": 5846,
      "لاف": 5847,
      "##ولان": 5848,
      "الصف": 5849,
      "جيهة": 5850,
      "قادر": 5851,
      "نتزوج": 5852,
      "مليكة": 5853,
      "مسحات": 5854,
      "اريد": 5855,
      "يم": 5856,
      "الفت": 5857,
      "الشوف": 5858,
      "تيق": 5859,
      "بقيتي": 5860,
      "الدموع": 5861,
      "##دري": 5862,
      "تجيب": 5863,
      "لمك": 5864,
      "بام": 5865,
      "العيد": 5866,
      "واصل": 5867,
      "سكر": 5868,
      "مدينة": 5869,
      "##خت": 5870,
      "الوق": 5871,
      "جلسو": 5872,
      "##دهم": 5873,
      "الفطور": 5874,
      "دابة": 5875,
      "بض": 5876,
      "لغرفة": 5877,
      "ولدو": 5878,
      "امجد": 5879,
      "المف": 5880,
      "##خاص": 5881,
      "يامنة": 5882,
      "ويس": 5883,
      "##يناش": 5884,
      "فحياتي": 5885,
      "ايرتان": 5886,
      "تلاق": 5887,
      "##وتوب": 5888,
      "##جامة": 5889,
      "الجميع": 5890,
      "لالا": 5891,
      "طف": 5892,
      "اط": 5893,
      "الكريم": 5894,
      "جوهرة": 5895,
      "الاخرى": 5896,
      "##جردة": 5897,
      "اكون": 5898,
      "بعيدة": 5899,
      "غر": 5900,
      "ورح": 5901,
      "كتافها": 5902,
      "رفع": 5903,
      "بلال": 5904,
      "فيلم": 5905,
      "مابقاش": 5906,
      "طري": 5907,
      "تاخ": 5908,
      "##اولي": 5909,
      "li": 5910,
      "##باء": 5911,
      "نعاود": 5912,
      "المه": 5913,
      "تنعس": 5914,
      "##ri": 5915,
      "بلادي": 5916,
      "وهزات": 5917,
      "لكر": 5918,
      "##فيها": 5919,
      "باغة": 5920,
      "تعاود": 5921,
      "##قية": 5922,
      "متح": 5923,
      "##قوا": 5924,
      "##url": 5925,
      "بون": 5926,
      "الون": 5927,
      "##خرجو": 5928,
      "خليه": 5929,
      "يستر": 5930,
      "##ماعيل": 5931,
      "هانية": 5932,
      "خصك": 5933,
      "ضهرها": 5934,
      "##جات": 5935,
      "بيدو": 5936,
      "تانا": 5937,
      "زكري": 5938,
      "غزال": 5939,
      "شاع": 5940,
      "##قصة": 5941,
      "وبال": 5942,
      "خنزر": 5943,
      "نخليك": 5944,
      "بانو": 5945,
      "طبلة": 5946,
      "الشع": 5947,
      "حبي": 5948,
      "ماغاديش": 5949,
      "فعنقها": 5950,
      "الناموسية": 5951,
      "تغوت": 5952,
      "جابر": 5953,
      "##تهاش": 5954,
      "حسبي": 5955,
      "القب": 5956,
      "اعلم": 5957,
      "قبيلة": 5958,
      "غنمشي": 5959,
      "بحالها": 5960,
      "جابت": 5961,
      "لی": 5962,
      "##🇲🇦🇲🇦": 5963,
      "وتن": 5964,
      "خوها": 5965,
      "##خدم": 5966,
      "##قط": 5967,
      "حاد": 5968,
      "المى": 5969,
      "##اسية": 5970,
      "##توب": 5971,
      "نفسي": 5972,
      "التلف": 5973,
      "##نيم": 5974,
      "##حتاج": 5975,
      "تكم": 5976,
      "علاه": 5977,
      "غيكون": 5978,
      "غدير": 5979,
      "وعاد": 5980,
      "يفك": 5981,
      "##كومة": 5982,
      "فلح": 5983,
      "دقة": 5984,
      "##ليت": 5985,
      "هند": 5986,
      "##يرها": 5987,
      "عطاه": 5988,
      "الثانية": 5989,
      "مالو": 5990,
      "غتكون": 5991,
      "القي": 5992,
      "المنتخب": 5993,
      "الحس": 5994,
      "##قاتو": 5995,
      "حمزة": 5996,
      "##احب": 5997,
      "نوال": 5998,
      "طالعة": 5999,
      "عايشين": 6000,
      "الحبيبة": 6001,
      "كذلك": 6002,
      "##اته": 6003,
      "فلم": 6004,
      "بالتوفيق": 6005,
      "كيج": 6006,
      "رجلي": 6007,
      "ارجو": 6008,
      "##لقها": 6009,
      "وري": 6010,
      "تالاسين": 6011,
      "##درات": 6012,
      "##ورها": 6013,
      "كندير": 6014,
      "كيبوس": 6015,
      "الفرحة": 6016,
      "##فيديو": 6017,
      "والى": 6018,
      "امينة": 6019,
      "اجمل": 6020,
      "بالاي": 6021,
      "العق": 6022,
      "كتك": 6023,
      "ابن": 6024,
      "تعجب": 6025,
      "بدل": 6026,
      "واما": 6027,
      "حينت": 6028,
      "مشاء": 6029,
      "فود": 6030,
      "جرات": 6031,
      "لوي": 6032,
      "##تمع": 6033,
      "الاك": 6034,
      "جيم": 6035,
      "وصلنا": 6036,
      "##وصل": 6037,
      "ضر": 6038,
      "بنبرة": 6039,
      "##بيرة": 6040,
      "نحن": 6041,
      "ختها": 6042,
      "امر": 6043,
      "قو": 6044,
      "فاهم": 6045,
      "ضعي": 6046,
      "المسو": 6047,
      "وزيد": 6048,
      "##شفى": 6049,
      "يدوز": 6050,
      "##لوها": 6051,
      "ساجد": 6052,
      "يحب": 6053,
      "يرزقك": 6054,
      "الماكلة": 6055,
      "الشعر": 6056,
      "زعمة": 6057,
      "بسلامة": 6058,
      "##موا": 6059,
      "##شك": 6060,
      "الحبس": 6061,
      "##تماع": 6062,
      "##اليط": 6063,
      "##افات": 6064,
      "نعسات": 6065,
      "##نقو": 6066,
      "تصاور": 6067,
      "ترد": 6068,
      "منصور": 6069,
      "دارها": 6070,
      "طيب": 6071,
      "لوك": 6072,
      "كيدوز": 6073,
      "عيات": 6074,
      "##el": 6075,
      "كيكون": 6076,
      "كلامها": 6077,
      "بطي": 6078,
      "##ايق": 6079,
      "معجب": 6080,
      "تعيش": 6081,
      "##ed": 6082,
      "##ارتو": 6083,
      "الموس": 6084,
      "شبع": 6085,
      "كتفو": 6086,
      "##اقب": 6087,
      "##ايف": 6088,
      "ماكن": 6089,
      "##متك": 6090,
      "علی": 6091,
      "##قال": 6092,
      "لخدمة": 6093,
      "فعل": 6094,
      "يحترم": 6095,
      "تشوفو": 6096,
      "مطلع": 6097,
      "##20": 6098,
      "هناء": 6099,
      "##ابات": 6100,
      "##at": 6101,
      "خف": 6102,
      "حواجبها": 6103,
      "الاغنية": 6104,
      "رقم": 6105,
      "وقرب": 6106,
      "الخوف": 6107,
      "مبقاش": 6108,
      "الزوج": 6109,
      "##ينات": 6110,
      "##ولات": 6111,
      "راجع": 6112,
      "غبر": 6113,
      "لهلا": 6114,
      "##مرو": 6115,
      "ناقص": 6116,
      "عكس": 6117,
      "العقل": 6118,
      "خبر": 6119,
      "مصر": 6120,
      "##حط": 6121,
      "مخت": 6122,
      "سعيدة": 6123,
      "جاين": 6124,
      "##مى": 6125,
      "غايكون": 6126,
      "البلاصة": 6127,
      "شباب": 6128,
      "##داك": 6129,
      "وكيانها": 6130,
      "صداع": 6131,
      "##زية": 6132,
      "##بوا": 6133,
      "عبر": 6134,
      "بسخ": 6135,
      "هزو": 6136,
      "خايب": 6137,
      "كيسمع": 6138,
      "##خف": 6139,
      "عطي": 6140,
      "ad": 6141,
      "##اسمة": 6142,
      "سهيلة": 6143,
      "هيرو": 6144,
      "##بيه": 6145,
      "خوه": 6146,
      "نعام": 6147,
      "سمعتي": 6148,
      "لبلاد": 6149,
      "عاط": 6150,
      "نكمل": 6151,
      "اخو": 6152,
      "عقلك": 6153,
      "##طقة": 6154,
      "##هرب": 6155,
      "##اكا": 6156,
      "لهيه": 6157,
      "##اسو": 6158,
      "الرحمان": 6159,
      "نمر": 6160,
      "وجدان": 6161,
      "شرح": 6162,
      "وعينيه": 6163,
      "قوي": 6164,
      "راسهم": 6165,
      "الكلب": 6166,
      "النظ": 6167,
      "كلمات": 6168,
      "بصاح": 6169,
      "##ین": 6170,
      "غاتكون": 6171,
      "##زالة": 6172,
      "خالد": 6173,
      "بنص": 6174,
      "العادة": 6175,
      "وفين": 6176,
      "##مرها": 6177,
      "الشمس": 6178,
      "الطبيبة": 6179,
      "حياتو": 6180,
      "##res": 6181,
      "الشركة": 6182,
      "##بيبتي": 6183,
      "##وقة": 6184,
      "مبغيتش": 6185,
      "عرفات": 6186,
      "##ابت": 6187,
      "السرير": 6188,
      "رون": 6189,
      "فهادشي": 6190,
      "وتخ": 6191,
      "وياه": 6192,
      "سحر": 6193,
      "براكة": 6194,
      "اماني": 6195,
      "##قم": 6196,
      "تحر": 6197,
      "##انتا": 6198,
      "غريب": 6199,
      "كيدور": 6200,
      "la": 6201,
      "##كمي": 6202,
      "بشوي": 6203,
      "##اودي": 6204,
      "تعصب": 6205,
      "ناش": 6206,
      "شعر": 6207,
      "لموت": 6208,
      "الخدامة": 6209,
      "معرفت": 6210,
      "تعط": 6211,
      "ضع": 6212,
      "##ريت": 6213,
      "اسماعيل": 6214,
      "الفراش": 6215,
      "عمار": 6216,
      "##الق": 6217,
      "بالضبط": 6218,
      "##وهة": 6219,
      "تضحك": 6220,
      "الحلقة": 6221,
      "##واب": 6222,
      "العمر": 6223,
      "العافية": 6224,
      "##لمس": 6225,
      "قات": 6226,
      "عجبني": 6227,
      "##اودو": 6228,
      "بقاي": 6229,
      "بحب": 6230,
      "والص": 6231,
      "##ينين": 6232,
      "نجم": 6233,
      "متاكدة": 6234,
      "دازو": 6235,
      "كيست": 6236,
      "مزيانين": 6237,
      "تجري": 6238,
      "##ريكا": 6239,
      "اوه": 6240,
      "متب": 6241,
      "ابتاسم": 6242,
      "كتاب": 6243,
      "خدها": 6244,
      "ركابي": 6245,
      "##ابيض": 6246,
      "##بن": 6247,
      "ورك": 6248,
      "لخير": 6249,
      "##غو": 6250,
      "فطريق": 6251,
      "مراتي": 6252,
      "سج": 6253,
      "طاي": 6254,
      "ركبات": 6255,
      "برهوش": 6256,
      "رشيد": 6257,
      "يلعب": 6258,
      "تخربيق": 6259,
      "خرجي": 6260,
      "##لوج": 6261,
      "العلا": 6262,
      "اجل": 6263,
      "اياد": 6264,
      "كيك": 6265,
      "الها": 6266,
      "يرزق": 6267,
      "##ارها": 6268,
      "##تمام": 6269,
      "حف": 6270,
      "##روع": 6271,
      "نخرجو": 6272,
      "وكلشي": 6273,
      "الراي": 6274,
      "##نوب": 6275,
      "تعي": 6276,
      "##اتوش": 6277,
      "شركة": 6278,
      "مصدوم": 6279,
      "تكات": 6280,
      "ديريكت": 6281,
      "بكيت": 6282,
      "عامرة": 6283,
      "لقاتها": 6284,
      "##نط": 6285,
      "##اخير": 6286,
      "##روس": 6287,
      "سيدنا": 6288,
      "هانتي": 6289,
      "هاب": 6290,
      "نوصير": 6291,
      "خطير": 6292,
      "يسر": 6293,
      "##ثم": 6294,
      "الاخيرة": 6295,
      "##ديمة": 6296,
      "عنق": 6297,
      "وكم": 6298,
      "العربية": 6299,
      "##مور": 6300,
      "##اسر": 6301,
      "قهوة": 6302,
      "##اضة": 6303,
      "النج": 6304,
      "##مسة": 6305,
      "##فى": 6306,
      "ديالكم": 6307,
      "كيفكر": 6308,
      "##جيو": 6309,
      "اليوتيوب": 6310,
      "##ريش": 6311,
      "يرحمها": 6312,
      "لبيتو": 6313,
      "مراتو": 6314,
      "غوتات": 6315,
      "عمو": 6316,
      "لقدام": 6317,
      "احلى": 6318,
      "اقسم": 6319,
      "##زر": 6320,
      "مجيد": 6321,
      "الالم": 6322,
      "##ناو": 6323,
      "تفكرات": 6324,
      "##داتها": 6325,
      "نفهم": 6326,
      "ذياب": 6327,
      "طبيبة": 6328,
      "##لهم": 6329,
      "تبقاي": 6330,
      "لمغ": 6331,
      "زفر": 6332,
      "حداهم": 6333,
      "زمر": 6334,
      "##ing": 6335,
      "فالغ": 6336,
      "الاز": 6337,
      "مكنتش": 6338,
      "يوقف": 6339,
      "كيط": 6340,
      "##بيا": 6341,
      "التف": 6342,
      "خيرا": 6343,
      "قاليا": 6344,
      "جاني": 6345,
      "منكم": 6346,
      "الخي": 6347,
      "رسول": 6348,
      "شرو": 6349,
      "##اموس": 6350,
      "رياض": 6351,
      "مسو": 6352,
      "فالف": 6353,
      "لمهم": 6354,
      "يحط": 6355,
      "عوج": 6356,
      "سوس": 6357,
      "نرجعو": 6358,
      "خوف": 6359,
      "تضرب": 6360,
      "##ندم": 6361,
      "العلم": 6362,
      "ختو": 6363,
      "بنتو": 6364,
      "تعليقي": 6365,
      "صهيب": 6366,
      "مشينا": 6367,
      "نزيد": 6368,
      "##سوق": 6369,
      "##اكد": 6370,
      "##اوة": 6371,
      "تنفس": 6372,
      "ميار": 6373,
      "لاو": 6374,
      "كيتع": 6375,
      "الكم": 6376,
      "كره": 6377,
      "التيليفون": 6378,
      "فی": 6379,
      "طموبيل": 6380,
      "ذكر": 6381,
      "##وفر": 6382,
      "الواقع": 6383,
      "كملو": 6384,
      "##عطي": 6385,
      "##لابة": 6386,
      "فبي": 6387,
      "درجة": 6388,
      "درب": 6389,
      "فيدها": 6390,
      "##رفي": 6391,
      "مراكش": 6392,
      "المستوى": 6393,
      "كوم": 6394,
      "جولان": 6395,
      "صلى": 6396,
      "##ايي": 6397,
      "البل": 6398,
      "فمي": 6399,
      "باز": 6400,
      "جبت": 6401,
      "ودير": 6402,
      "##اكلو": 6403,
      "##عوبة": 6404,
      "خلاتها": 6405,
      "اولاد": 6406,
      "باباك": 6407,
      "حمرين": 6408,
      "##هدرو": 6409,
      "##لتش": 6410,
      "##ايدة": 6411,
      "وتشوف": 6412,
      "وصديقا": 6413,
      "تقطع": 6414,
      "غيت": 6415,
      "لعي": 6416,
      "##صدرو": 6417,
      "##ونات": 6418,
      "طلعي": 6419,
      "بول": 6420,
      "##طورة": 6421,
      "##il": 6422,
      "##الف": 6423,
      "مفر": 6424,
      "سبع": 6425,
      "لذ": 6426,
      "الاخت": 6427,
      "المكتب": 6428,
      "##لعة": 6429,
      "##وايجي": 6430,
      "تنف": 6431,
      "##وما": 6432,
      "تبدا": 6433,
      "##ورين": 6434,
      "يرحمو": 6435,
      "وشد": 6436,
      "ويعافيك": 6437,
      "خطوة": 6438,
      "الدري": 6439,
      "العاب": 6440,
      "امجاد": 6441,
      "سق": 6442,
      "معت": 6443,
      "##بقايش": 6444,
      "التس": 6445,
      "اعرف": 6446,
      "نازل": 6447,
      "سبق": 6448,
      "سالات": 6449,
      "ديني": 6450,
      "خد": 6451,
      "امتى": 6452,
      "حلم": 6453,
      "##ونية": 6454,
      "##باك": 6455,
      "بحزن": 6456,
      "تعطل": 6457,
      "افرا": 6458,
      "ايثار": 6459,
      "مغيث": 6460,
      "رميساء": 6461,
      "المك": 6462,
      "تعالى": 6463,
      "وشكون": 6464,
      "طرا": 6465,
      "حص": 6466,
      "صحة": 6467,
      "متكي": 6468,
      "زكرياء": 6469,
      "علات": 6470,
      "ادير": 6471,
      "تنا": 6472,
      "لمش": 6473,
      "تنس": 6474,
      "جوزيف": 6475,
      "تاف": 6476,
      "بالن": 6477,
      "وتم": 6478,
      "طايح": 6479,
      "##هري": 6480,
      "وديك": 6481,
      "كترعد": 6482,
      "##ادين": 6483,
      "دولة": 6484,
      "الكوزينة": 6485,
      "بني": 6486,
      "##حها": 6487,
      "اتح": 6488,
      "والخ": 6489,
      "الفا": 6490,
      "وبع": 6491,
      "ونزل": 6492,
      "النص": 6493,
      "وضرب": 6494,
      "عادية": 6495,
      "راضية": 6496,
      "ناوي": 6497,
      "تماما": 6498,
      "قريبة": 6499,
      "##جلي": 6500,
      "نتفرج": 6501,
      "نسا": 6502,
      "ينت": 6503,
      "ميساج": 6504,
      "##شيت": 6505,
      "بهمس": 6506,
      "كرسي": 6507,
      "##اليا": 6508,
      "فاب": 6509,
      "ونطق": 6510,
      "ركبو": 6511,
      "صونا": 6512,
      "الفكرة": 6513,
      "صقر": 6514,
      "##عني": 6515,
      "وتس": 6516,
      "باقين": 6517,
      "معندي": 6518,
      "جابو": 6519,
      "محتاجة": 6520,
      "لفيلا": 6521,
      "##ملي": 6522,
      "نفسو": 6523,
      "سيارة": 6524,
      "حداك": 6525,
      "سلوى": 6526,
      "بالصحة": 6527,
      "مابقيتش": 6528,
      "شت": 6529,
      "تشد": 6530,
      "شهاب": 6531,
      "##خلعة": 6532,
      "مشكيل": 6533,
      "فه": 6534,
      "القحبة": 6535,
      "بالايجاب": 6536,
      "مرتو": 6537,
      "شدي": 6538,
      "هنادي": 6539,
      "ضاح": 6540,
      "##راج": 6541,
      "##ردة": 6542,
      "تنزل": 6543,
      "##رار": 6544,
      "الشك": 6545,
      "سالا": 6546,
      "جاتها": 6547,
      "ولبس": 6548,
      "وحيد": 6549,
      "متاكد": 6550,
      "##♥♥": 6551,
      "العلي": 6552,
      "##دوزو": 6553,
      "##خليك": 6554,
      "العملية": 6555,
      "خدو": 6556,
      "##مارا": 6557,
      "##كها": 6558,
      "نادية": 6559,
      "لمي": 6560,
      "السوال": 6561,
      "الابتسامة": 6562,
      "المدينة": 6563,
      "عنقاتها": 6564,
      "##لمة": 6565,
      "لبسي": 6566,
      "المرات": 6567,
      "خاطرك": 6568,
      "داب": 6569,
      "وتق": 6570,
      "قراي": 6571,
      "مجد": 6572,
      "امو": 6573,
      "الشباب": 6574,
      "##طاء": 6575,
      "##وري": 6576,
      "حنكها": 6577,
      "غيتة": 6578,
      "ساهية": 6579,
      "خاوية": 6580,
      "هات": 6581,
      "##افظ": 6582,
      "مشغ": 6583,
      "##لوق": 6584,
      "الرد": 6585,
      "40": 6586,
      "سباب": 6587,
      "السلامة": 6588,
      "بعضياتهم": 6589,
      "غريبة": 6590,
      "ماكاي": 6591,
      "##it": 6592,
      "##ميها": 6593,
      "##افيه": 6594,
      "اليه": 6595,
      "امنية": 6596,
      "مغن": 6597,
      "هديك": 6598,
      "ماعندي": 6599,
      "سلمات": 6600,
      "كنسمع": 6601,
      "ماكات": 6602,
      "مابغاش": 6603,
      "قاليك": 6604,
      "المل": 6605,
      "سيلين": 6606,
      "مرتاح": 6607,
      "فحالك": 6608,
      "لبست": 6609,
      "##اوه": 6610,
      "##كمة": 6611,
      "الحمل": 6612,
      "ماماها": 6613,
      "اهل": 6614,
      "كيتر": 6615,
      "##بوش": 6616,
      "##لوه": 6617,
      "##طرطق": 6618,
      "يض": 6619,
      "##زاد": 6620,
      "##ذه": 6621,
      "##امع": 6622,
      "عطا": 6623,
      "وايه": 6624,
      "كتفها": 6625,
      "الدخ": 6626,
      "الصغير": 6627,
      "سمعو": 6628,
      "المنا": 6629,
      "##سوط": 6630,
      "فوجهو": 6631,
      "gt": 6632,
      "بلب": 6633,
      "تفيق": 6634,
      "##تاني": 6635,
      "ماتخ": 6636,
      "نقولك": 6637,
      "دكتور": 6638,
      "##لسل": 6639,
      "نعيش": 6640,
      "كلس": 6641,
      "دمعة": 6642,
      "كازا": 6643,
      "##ديث": 6644,
      "وحدا": 6645,
      "يتس": 6646,
      "ومر": 6647,
      "حام": 6648,
      "خلاه": 6649,
      "تنع": 6650,
      "ردة": 6651,
      "هبطو": 6652,
      "##صى": 6653,
      "هناك": 6654,
      "شهقات": 6655,
      "بيضة": 6656,
      "اشحن": 6657,
      "جيبو": 6658,
      "الوجه": 6659,
      "اث": 6660,
      "كيزيد": 6661,
      "##انك": 6662,
      "لبلاصة": 6663,
      "ومح": 6664,
      "##شيما": 6665,
      "واحدة": 6666,
      "المرا": 6667,
      "جدي": 6668,
      "##زيل": 6669,
      "قلبات": 6670,
      "ادا": 6671,
      "شيحاجة": 6672,
      "الشوفة": 6673,
      "لمرة": 6674,
      "خصني": 6675,
      "##صيبة": 6676,
      "الحساب": 6677,
      "وهادشي": 6678,
      "##مني": 6679,
      "البش": 6680,
      "عمل": 6681,
      "##اهية": 6682,
      "بداك": 6683,
      "ومي": 6684,
      "جبهتها": 6685,
      "توقع": 6686,
      "##بانيا": 6687,
      "فاير": 6688,
      "حفي": 6689,
      "بيكم": 6690,
      "تاح": 6691,
      "يعتقدون": 6692,
      "ثلوج": 6693,
      "يوص": 6694,
      "##امح": 6695,
      "مبغاش": 6696,
      "نطلع": 6697,
      "##شوفش": 6698,
      "لحم": 6699,
      "عقلي": 6700,
      "بكم": 6701,
      "لبال": 6702,
      "اهلا": 6703,
      "المشاكل": 6704,
      "تموت": 6705,
      "ومو": 6706,
      "شخصية": 6707,
      "دراعها": 6708,
      "سيدرا": 6709,
      "##اهلي": 6710,
      "##بقاي": 6711,
      "الفيلا": 6712,
      "##id": 6713,
      "##عك": 6714,
      "هزيت": 6715,
      "طير": 6716,
      "##اءة": 6717,
      "وبعد": 6718,
      "##فية": 6719,
      "##قيه": 6720,
      "اند": 6721,
      "ونص": 6722,
      "نمرة": 6723,
      "##اره": 6724,
      "تفتح": 6725,
      "ياختي": 6726,
      "المجر": 6727,
      "يفهم": 6728,
      "وتعشق": 6729,
      "بيني": 6730,
      "##ابعة": 6731,
      "شعري": 6732,
      "نسولك": 6733,
      "تجاو": 6734,
      "واخيرا": 6735,
      "##خافش": 6736,
      "المدير": 6737,
      "##يته": 6738,
      "دول": 6739,
      "اض": 6740,
      "كنش": 6741,
      "ايضا": 6742,
      "مزيرة": 6743,
      "قصد": 6744,
      "التج": 6745,
      "يحفضك": 6746,
      "توق": 6747,
      "##روش": 6748,
      "قليلة": 6749,
      "فالي": 6750,
      "تلقا": 6751,
      "##ونك": 6752,
      "تفر": 6753,
      "رتاج": 6754,
      "كتحرك": 6755,
      "حكي": 6756,
      "مبتاسمة": 6757,
      "نبقى": 6758,
      "تعاون": 6759,
      "قصير": 6760,
      "##داء": 6761,
      "وحدين": 6762,
      "فنة": 6763,
      "بعق": 6764,
      "##ريقيا": 6765,
      "اقل": 6766,
      "##طاج": 6767,
      "عطاتو": 6768,
      "نهاي": 6769,
      "الصغيرة": 6770,
      "بغى": 6771,
      "عضات": 6772,
      "بنك": 6773,
      "##فوت": 6774,
      "توحشت": 6775,
      "سمحلي": 6776,
      "دب": 6777,
      "اهى": 6778,
      "##بتاسم": 6779,
      "مدو": 6780,
      "##ine": 6781,
      "##ro": 6782,
      "ايت": 6783,
      "وضحك": 6784,
      "وكانت": 6785,
      "كتست": 6786,
      "##داتو": 6787,
      "وكيت": 6788,
      "الداخل": 6789,
      "شهور": 6790,
      "وجمع": 6791,
      "ضحى": 6792,
      "##جيش": 6793,
      "##انس": 6794,
      "##ليم": 6795,
      "##عاب": 6796,
      "اليزيد": 6797,
      "فضي": 6798,
      "فاله": 6799,
      "وحتا": 6800,
      "تكا": 6801,
      "فسي": 6802,
      "##غا": 6803,
      "كيقولو": 6804,
      "الفرق": 6805,
      "ومش": 6806,
      "تاهي": 6807,
      "حوايجي": 6808,
      "فلس": 6809,
      "##ay": 6810,
      "محطو": 6811,
      "فالبيت": 6812,
      "##صيف": 6813,
      "واضح": 6814,
      "كيدا": 6815,
      "والك": 6816,
      "##مرض": 6817,
      "ابنت": 6818,
      "مير": 6819,
      "غنت": 6820,
      "الصلاة": 6821,
      "لجهة": 6822,
      "تغير": 6823,
      "بوج": 6824,
      "##ظار": 6825,
      "##تهال": 6826,
      "##هيم": 6827,
      "##امو": 6828,
      "جيداء": 6829,
      "تفرح": 6830,
      "كامي": 6831,
      "العيالات": 6832,
      "##دوه": 6833,
      "تحيد": 6834,
      "بصدق": 6835,
      "##روه": 6836,
      "لبر": 6837,
      "رييس": 6838,
      "حلوة": 6839,
      "نسيتي": 6840,
      "كديري": 6841,
      "##توعب": 6842,
      "احبيبتي": 6843,
      "الجز": 6844,
      "##هاتف": 6845,
      "همام": 6846,
      "بحدة": 6847,
      "لطيفة": 6848,
      "مابغاتش": 6849,
      "خلص": 6850,
      "##تهزاء": 6851,
      "جاها": 6852,
      "خذ": 6853,
      "هضرت": 6854,
      "ردي": 6855,
      "ابدا": 6856,
      "الكام": 6857,
      "شهد": 6858,
      "##ماعة": 6859,
      "قاس": 6860,
      "مشاكل": 6861,
      "مفهمتش": 6862,
      "داني": 6863,
      "##ستر": 6864,
      "وفرح": 6865,
      "حمار": 6866,
      "جاه": 6867,
      "ونو": 6868,
      "وجا": 6869,
      "اقو": 6870,
      "العو": 6871,
      "نجلاء": 6872,
      "لديك": 6873,
      "##سخ": 6874,
      "كتقولي": 6875,
      "##تيم": 6876,
      "يوقع": 6877,
      "##ساع": 6878,
      "وداكشي": 6879,
      "##امعة": 6880,
      "تلبس": 6881,
      "فز": 6882,
      "##عمل": 6883,
      "##هن": 6884,
      "دقات": 6885,
      "##عش": 6886,
      "حقي": 6887,
      "يولي": 6888,
      "وخرجو": 6889,
      "فراسي": 6890,
      "كف": 6891,
      "فتحات": 6892,
      "دوزات": 6893,
      "كتمسح": 6894,
      "نقطة": 6895,
      "صدر": 6896,
      "ماعنديش": 6897,
      "فغ": 6898,
      "كنتسنا": 6899,
      "توجه": 6900,
      "##هى": 6901,
      "كاب": 6902,
      "تيشوف": 6903,
      "##الج": 6904,
      "شعور": 6905,
      "قصيرة": 6906,
      "##انب": 6907,
      "الباس": 6908,
      "كنتو": 6909,
      "##هوا": 6910,
      "لبلاص": 6911,
      "كريمة": 6912,
      "مخلوعة": 6913,
      "##ارط": 6914,
      "##صدق": 6915,
      "امتا": 6916,
      "زر": 6917,
      "هديل": 6918,
      "طبيع": 6919,
      "تبعد": 6920,
      "اور": 6921,
      "وخرجت": 6922,
      "##داتك": 6923,
      "وراق": 6924,
      "قربت": 6925,
      "تخرجي": 6926,
      "لهد": 6927,
      "مكانتش": 6928,
      "ملق": 6929,
      "خوات": 6930,
      "##مير": 6931,
      "##اهدة": 6932,
      "##بتها": 6933,
      "الطموبيل": 6934,
      "اخاي": 6935,
      "مجموعة": 6936,
      "يفرج": 6937,
      "بنا": 6938,
      "يضحك": 6939,
      "خوي": 6940,
      "صابر": 6941,
      "##لوي": 6942,
      "الحمدله": 6943,
      "غسلات": 6944,
      "عرض": 6945,
      "نظر": 6946,
      "##طلق": 6947,
      "ولادي": 6948,
      "سخون": 6949,
      "صدم": 6950,
      "كيصوني": 6951,
      "السف": 6952,
      "الراحة": 6953,
      "تاسيا": 6954,
      "الوج": 6955,
      "الرس": 6956,
      "فشعرها": 6957,
      "ذهب": 6958,
      "فيهوم": 6959,
      "فانز": 6960,
      "##ah": 6961,
      "ميساء": 6962,
      "##ديل": 6963,
      "فريال": 6964,
      "الخبز": 6965,
      "سمحيلي": 6966,
      "مبتاسم": 6967,
      "باستو": 6968,
      "فريق": 6969,
      "##ايية": 6970,
      "صمت": 6971,
      "ينوض": 6972,
      "##دودة": 6973,
      "نهضرو": 6974,
      "مقو": 6975,
      "بالفرحة": 6976,
      "فالطريق": 6977,
      "جعفر": 6978,
      "دمو": 6979,
      "سيرو": 6980,
      "كثير": 6981,
      "وقعات": 6982,
      "وث": 6983,
      "الصدمة": 6984,
      "نقص": 6985,
      "##طعم": 6986,
      "ناضو": 6987,
      "بيبي": 6988,
      "الخرا": 6989,
      "كبار": 6990,
      "الشهر": 6991,
      "هاح": 6992,
      "جلسي": 6993,
      "ردت": 6994,
      "قس": 6995,
      "وبلا": 6996,
      "حنات": 6997,
      "سامي": 6998,
      "##اخا": 6999,
      "تيليفونها": 7000,
      "ليش": 7001,
      "السخ": 7002,
      "واقيلا": 7003,
      "عقلو": 7004,
      "الحقيقي": 7005,
      "درتو": 7006,
      "الموسيقى": 7007,
      "##سيفط": 7008,
      "##برز": 7009,
      "تبعو": 7010,
      "غند": 7011,
      "##خين": 7012,
      "اسود": 7013,
      "برنامج": 7014,
      "##ضرات": 7015,
      "نفسك": 7016,
      "موجود": 7017,
      "صاكها": 7018,
      "##ثرة": 7019,
      "مقاد": 7020,
      "فوقاش": 7021,
      "وجلسات": 7022,
      "##🇩🇿🇩🇿": 7023,
      "وكنت": 7024,
      "ابتهال": 7025,
      "حض": 7026,
      "##صلي": 7027,
      "معنق": 7028,
      "##ايه": 7029,
      "مزوجة": 7030,
      "##جيك": 7031,
      "##لاتة": 7032,
      "بعضهم": 7033,
      "تبر": 7034,
      "##سنى": 7035,
      "فالاس": 7036,
      "مابقاتش": 7037,
      "معيا": 7038,
      "العشية": 7039,
      "##جرد": 7040,
      "نورا": 7041,
      "معمر": 7042,
      "صاب": 7043,
      "واف": 7044,
      "اثير": 7045,
      "حفظ": 7046,
      "ودر": 7047,
      "##دنا": 7048,
      "##لولي": 7049,
      "صافا": 7050,
      "##جار": 7051,
      "دوزي": 7052,
      "##مشيش": 7053,
      "نقولو": 7054,
      "معصبة": 7055,
      "##ميلة": 7056,
      "ميسي": 7057,
      "كيمسح": 7058,
      "نهى": 7059,
      "ساهلة": 7060,
      "حاليا": 7061,
      "اهاب": 7062,
      "##ديهم": 7063,
      "لحيتو": 7064,
      "شوفة": 7065,
      "##رفع": 7066,
      "حكم": 7067,
      "المدرسة": 7068,
      "##ضوان": 7069,
      "##دوب": 7070,
      "فينك": 7071,
      "وباس": 7072,
      "مكاي": 7073,
      "الوص": 7074,
      "ولب": 7075,
      "الصغار": 7076,
      "ريبال": 7077,
      "يسرى": 7078,
      "باد": 7079,
      "ندوي": 7080,
      "العزيز": 7081,
      "##هوشة": 7082,
      "رش": 7083,
      "زينة": 7084,
      "الحكومة": 7085,
      "الشيخ": 7086,
      "##بور": 7087,
      "##موعها": 7088,
      "##ظات": 7089,
      "19": 7090,
      "فام": 7091,
      "كاتع": 7092,
      "يوتي": 7093,
      "يز": 7094,
      "نصيحة": 7095,
      "كانها": 7096,
      "لال": 7097,
      "بالبك": 7098,
      "شداتها": 7099,
      "امك": 7100,
      "المرضة": 7101,
      "to": 7102,
      "نيفها": 7103,
      "##اطن": 7104,
      "لمياء": 7105,
      "الكري": 7106,
      "ملامحها": 7107,
      "غالية": 7108,
      "يخليكم": 7109,
      "بلعات": 7110,
      "##كرك": 7111,
      "##لاقاو": 7112,
      "خنزرات": 7113,
      "شافتها": 7114,
      "الشيء": 7115,
      "تض": 7116,
      "شم": 7117,
      "متق": 7118,
      "وزير": 7119,
      "##نيت": 7120,
      "##مرك": 7121,
      "عيانة": 7122,
      "##فرة": 7123,
      "محس": 7124,
      "##نهج": 7125,
      "هضري": 7126,
      "الوحيدة": 7127,
      "تاه": 7128,
      "الجديدة": 7129,
      "ينعل": 7130,
      "فديو": 7131,
      "تفض": 7132,
      "##ia": 7133,
      "يتزوج": 7134,
      "يهز": 7135,
      "##ناسبة": 7136,
      "اون": 7137,
      "منع": 7138,
      "عشق": 7139,
      "مغمض": 7140,
      "عصمان": 7141,
      "حادة": 7142,
      "ونش": 7143,
      "co": 7144,
      "ازار": 7145,
      "حشمانة": 7146,
      "مرتي": 7147,
      "سل": 7148,
      "##ثوم": 7149,
      "كتاكل": 7150,
      "ولف": 7151,
      "الاث": 7152,
      "ماعرفت": 7153,
      "##حية": 7154,
      "ماه": 7155,
      "##ليكم": 7156,
      "تمس": 7157,
      "اوى": 7158,
      "الجل": 7159,
      "جمهور": 7160,
      "ميلاد": 7161,
      "وماشي": 7162,
      "خفت": 7163,
      "يخليها": 7164,
      "قرعة": 7165,
      "##اطعة": 7166,
      "وند": 7167,
      "صبعو": 7168,
      "##لاوي": 7169,
      "العشا": 7170,
      "##زنقة": 7171,
      "عاوتاني": 7172,
      "##ايم": 7173,
      "##تلك": 7174,
      "##لومة": 7175,
      "الوطو": 7176,
      "##اروت": 7177,
      "##انز": 7178,
      "ارك": 7179,
      "السعو": 7180,
      "خشا": 7181,
      "بفرحة": 7182,
      "##دقاء": 7183,
      "##تكش": 7184,
      "صفر": 7185,
      "##lo": 7186,
      "اسبوع": 7187,
      "اساس": 7188,
      "وداك": 7189,
      "تخدم": 7190,
      "الفرصة": 7191,
      "##حد": 7192,
      "##فضل": 7193,
      "ابتاسمات": 7194,
      "##اعدك": 7195,
      "##لاتها": 7196,
      "جيهتها": 7197,
      "لقد": 7198,
      "مسخ": 7199,
      "لغدا": 7200,
      "الحليب": 7201,
      "شيطان": 7202,
      "راكم": 7203,
      "تلاحت": 7204,
      "دليل": 7205,
      "##اضر": 7206,
      "فوقها": 7207,
      "##صلح": 7208,
      "مكرهتش": 7209,
      "عيا": 7210,
      "الدكتور": 7211,
      "يصبر": 7212,
      "##كياج": 7213,
      "غرفة": 7214,
      "نفكر": 7215,
      "##خصوص": 7216,
      "بسخرية": 7217,
      "##ﻬﺎ": 7218,
      "هدرات": 7219,
      "رغ": 7220,
      "##گول": 7221,
      "هابط": 7222,
      "جودية": 7223,
      "سمير": 7224,
      "جامع": 7225,
      "كله": 7226,
      "مكات": 7227,
      "فخر": 7228,
      "ارب": 7229,
      "طارت": 7230,
      "عاص": 7231,
      "بلغ": 7232,
      "فخاط": 7233,
      "فراش": 7234,
      "اخوك": 7235,
      "التعليق": 7236,
      "cha": 7237,
      "امراة": 7238,
      "استاذ": 7239,
      "##فرق": 7240,
      "##سد": 7241,
      "##بش": 7242,
      "##اوها": 7243,
      "##فايفها": 7244,
      "خسر": 7245,
      "##ريفة": 7246,
      "##خليني": 7247,
      "غط": 7248,
      "##كملو": 7249,
      "##ربها": 7250,
      "مغم": 7251,
      "ندوز": 7252,
      "##ak": 7253,
      "معنى": 7254,
      "عباد": 7255,
      "نعيط": 7256,
      "يبقا": 7257,
      "##ميم": 7258,
      "تيد": 7259,
      "ضهرو": 7260,
      "يعاون": 7261,
      "لصالون": 7262,
      "مرف": 7263,
      "##بلي": 7264,
      "باسل": 7265,
      "يشوفو": 7266,
      "نشري": 7267,
      "نصف": 7268,
      "##واز": 7269,
      "##تص": 7270,
      "الكرة": 7271,
      "ليهوم": 7272,
      "تول": 7273,
      "باستهزاء": 7274,
      "ومشاو": 7275,
      "القانون": 7276,
      "فوسط": 7277,
      "وخص": 7278,
      "لانها": 7279,
      "##جعو": 7280,
      "زيرات": 7281,
      "بالق": 7282,
      "##he": 7283,
      "18": 7284,
      "افريقيا": 7285,
      "طبيعي": 7286,
      "##اكيل": 7287,
      "هاهي": 7288,
      "##تلو": 7289,
      "نوصل": 7290,
      "وار": 7291,
      "سليمان": 7292,
      "تاخد": 7293,
      "يجب": 7294,
      "ضور": 7295,
      "بحكم": 7296,
      "mo": 7297,
      "عنده": 7298,
      "البس": 7299,
      "كضرب": 7300,
      "##ve": 7301,
      "بصراحة": 7302,
      "شغل": 7303,
      "الدروج": 7304,
      "ابتسم": 7305,
      "##متا": 7306,
      "خصو": 7307,
      "هيروشيما": 7308,
      "الملا": 7309,
      "##ce": 7310,
      "البع": 7311,
      "القدام": 7312,
      "##بيعة": 7313,
      "##كتر": 7314,
      "غوب": 7315,
      "##ايات": 7316,
      "سلطانة": 7317,
      "الصداع": 7318,
      "##اولة": 7319,
      "جسمها": 7320,
      "ساهل": 7321,
      "فاز": 7322,
      "##اهاش": 7323,
      "حوايجك": 7324,
      "ارحم": 7325,
      "ياق": 7326,
      "الجن": 7327,
      "تقدري": 7328,
      "##فه": 7329,
      "لانك": 7330,
      "انسانة": 7331,
      "دا": 7332,
      "##وفة": 7333,
      "##تسم": 7334,
      "وضع": 7335,
      "تلفون": 7336,
      "لاني": 7337,
      "##سير": 7338,
      "القصة": 7339,
      "وملي": 7340,
      "تقرا": 7341,
      "يبعد": 7342,
      "سليم": 7343,
      "الفاي": 7344,
      "لوجه": 7345,
      "حلف": 7346,
      "##يب": 7347,
      "تيمور": 7348,
      "ورقة": 7349,
      "وجرها": 7350,
      "مكياج": 7351,
      "سري": 7352,
      "الحبيب": 7353,
      "فرحة": 7354,
      "##مص": 7355,
      "##وتة": 7356,
      "جاتني": 7357,
      "ناردين": 7358,
      "تزاد": 7359,
      "##حيم": 7360,
      "شني": 7361,
      "كنع": 7362,
      "الهاتف": 7363,
      "بصعوبة": 7364,
      "لدي": 7365,
      "كيعرف": 7366,
      "باركة": 7367,
      "بعدها": 7368,
      "روم": 7369,
      "مينة": 7370,
      "نحس": 7371,
      "الخوت": 7372,
      "لسي": 7373,
      "باقة": 7374,
      "ماكانش": 7375,
      "واد": 7376,
      "احس": 7377,
      "اعصاب": 7378,
      "لاق": 7379,
      "نبغي": 7380,
      "باذن": 7381,
      "##حيط": 7382,
      "وشوف": 7383,
      "فيديوهات": 7384,
      "مركز": 7385,
      "##رجف": 7386,
      "تهلاي": 7387,
      "##طقات": 7388,
      "##زيزة": 7389,
      "##قوش": 7390,
      "الاسود": 7391,
      "وايت": 7392,
      "كيضحكو": 7393,
      "##خليها": 7394,
      "لجميع": 7395,
      "وكيفاش": 7396,
      "زه": 7397,
      "مابقا": 7398,
      "تهدني": 7399,
      "##rese": 7400,
      "##دوها": 7401,
      "كنموت": 7402,
      "##فوان": 7403,
      "تفكرت": 7404,
      "لبعض": 7405,
      "مفي": 7406,
      "وقلب": 7407,
      "عارفها": 7408,
      "مغمضة": 7409,
      "مساكن": 7410,
      "##ماد": 7411,
      "المب": 7412,
      "##فن": 7413,
      "هنية": 7414,
      "مغاربة": 7415,
      "ناحية": 7416,
      "الجوع": 7417,
      "##جمعو": 7418,
      "انص": 7419,
      "ودخلو": 7420,
      "يسعد": 7421,
      "وطلعات": 7422,
      "##شيش": 7423,
      "ونس": 7424,
      "رضوان": 7425,
      "##حتي": 7426,
      "كالس": 7427,
      "مبارك": 7428,
      "طار": 7429,
      "وحطات": 7430,
      "جانبية": 7431,
      "دل": 7432,
      "سنا": 7433,
      "كلسات": 7434,
      "النور": 7435,
      "الاستا": 7436,
      "الريال": 7437,
      "##كول": 7438,
      "ظهرها": 7439,
      "متف": 7440,
      "فوطة": 7441,
      "يحفظكم": 7442,
      "##باط": 7443,
      "##يون": 7444,
      "اسمها": 7445,
      "نيفو": 7446,
      "لقصر": 7447,
      "ضربها": 7448,
      "الشاب": 7449,
      "هكذا": 7450,
      "صلاة": 7451,
      "##ينال": 7452,
      "بتعب": 7453,
      "حج": 7454,
      "ولينا": 7455,
      "الخاص": 7456,
      "بالغوات": 7457,
      "##افقة": 7458,
      "##ab": 7459,
      "موقع": 7460,
      "##خم": 7461,
      "عاودات": 7462,
      "adrese": 7463,
      "##خا": 7464,
      "حميد": 7465,
      "الفقر": 7466,
      "##طى": 7467,
      "##قز": 7468,
      "##اجات": 7469,
      "كيهضرو": 7470,
      "الباك": 7471,
      "اقول": 7472,
      "لطو": 7473,
      "##عان": 7474,
      "متكية": 7475,
      "##فران": 7476,
      "am": 7477,
      "##بوب": 7478,
      "تقرب": 7479,
      "لكان": 7480,
      "فبع": 7481,
      "حطيت": 7482,
      "بله": 7483,
      "عرفها": 7484,
      "يشد": 7485,
      "خمس": 7486,
      "ومغ": 7487,
      "ابي": 7488,
      "##اجا": 7489,
      "خاوي": 7490,
      "##تف": 7491,
      "نقولها": 7492,
      "وياها": 7493,
      "##عدو": 7494,
      "التخ": 7495,
      "ابيض": 7496,
      "##زيدي": 7497,
      "جوليا": 7498,
      "##واني": 7499,
      "اشوف": 7500,
      "توفيق": 7501,
      "دی": 7502,
      "##حراء": 7503,
      "قدامهم": 7504,
      "العمل": 7505,
      "##لسلة": 7506,
      "جيهان": 7507,
      "##سلم": 7508,
      "داري": 7509,
      "ميد": 7510,
      "##ضها": 7511,
      "ماغات": 7512,
      "التصو": 7513,
      "شورط": 7514,
      "كرو": 7515,
      "##لنا": 7516,
      "نحبك": 7517,
      "العز": 7518,
      "البلان": 7519,
      "حما": 7520,
      "غانمشي": 7521,
      "##صاور": 7522,
      "طنجة": 7523,
      "وبزاف": 7524,
      "بربي": 7525,
      "##us": 7526,
      "##ارقة": 7527,
      "ابابا": 7528,
      "##ولا": 7529,
      "لداك": 7530,
      "##❤❤❤❤": 7531,
      "لبرا": 7532,
      "صديقي": 7533,
      "فلك": 7534,
      "ارض": 7535,
      "صدمة": 7536,
      "قرا": 7537,
      "فرقة": 7538,
      "هيبة": 7539,
      "جواب": 7540,
      "ناموس": 7541,
      "فبلاصتو": 7542,
      "ربما": 7543,
      "##ميجة": 7544,
      "الرجاء": 7545,
      "تخشات": 7546,
      "رضى": 7547,
      "وايلي": 7548,
      "كلثوم": 7549,
      "مخرجة": 7550,
      "ماغان": 7551,
      "صبع": 7552,
      "كرام": 7553,
      "عليهوم": 7554,
      "يموت": 7555,
      "ساعات": 7556,
      "اغلب": 7557,
      "لمد": 7558,
      "قاطعها": 7559,
      "وتبع": 7560,
      "وجات": 7561,
      "اقت": 7562,
      "قضية": 7563,
      "بالصح": 7564,
      "احبيبي": 7565,
      "##تيلي": 7566,
      "##رجو": 7567,
      "فرحانين": 7568,
      "صوتك": 7569,
      "ضربو": 7570,
      "جمعت": 7571,
      "مبقاتش": 7572,
      "المخزن": 7573,
      "كانوا": 7574,
      "##تع": 7575,
      "يخرجو": 7576,
      "زهر": 7577,
      "عوي": 7578,
      "رتيل": 7579,
      "شنا": 7580,
      "##بيش": 7581,
      "الفنان": 7582,
      "##اديو": 7583,
      "لاحت": 7584,
      "فى": 7585,
      "وسام": 7586,
      "روحي": 7587,
      "باط": 7588,
      "ايدي": 7589,
      "يمين": 7590,
      "سيدة": 7591,
      "يجيو": 7592,
      "ومزال": 7593,
      "يجازي": 7594,
      "مسي": 7595,
      "تجاوب": 7596,
      "الروح": 7597,
      "##امات": 7598,
      "هءهءه": 7599,
      "you": 7600,
      "جزاك": 7601,
      "##قه": 7602,
      "بدلات": 7603,
      "نقي": 7604,
      "كاتبكي": 7605,
      "##متع": 7606,
      "##ومه": 7607,
      "مقابلة": 7608,
      "وكيف": 7609,
      "##ولشي": 7610,
      "لز": 7611,
      "##كلف": 7612,
      "كاض": 7613,
      "كتمشي": 7614,
      "العكس": 7615,
      "تصبح": 7616,
      "خدامين": 7617,
      "فالمر": 7618,
      "mar": 7619,
      "ارا": 7620,
      "قسم": 7621,
      "##اليك": 7622,
      "بيتها": 7623,
      "تهرب": 7624,
      "كيديرو": 7625,
      "ينزل": 7626,
      "الفيلم": 7627,
      "##صوني": 7628,
      "##راغ": 7629,
      "بقناتي": 7630,
      "فجاة": 7631,
      "متخافيش": 7632,
      "البوس": 7633,
      "يدخلو": 7634,
      "مرتاحة": 7635,
      "ولى": 7636,
      "الجمهور": 7637,
      "الضرب": 7638,
      "##عجبك": 7639,
      "##طلة": 7640,
      "##اصيل": 7641,
      "الغدا": 7642,
      "ماتو": 7643,
      "الدع": 7644,
      "فقت": 7645,
      "مقاب": 7646,
      "an": 7647,
      "لبن": 7648,
      "##الس": 7649,
      "مقلب": 7650,
      "كيتفرج": 7651,
      "الگ": 7652,
      "ترب": 7653,
      "##بوه": 7654,
      "فيروز": 7655,
      "نقلب": 7656,
      "##هومش": 7657,
      "نعطيك": 7658,
      "يجمع": 7659,
      "بعدم": 7660,
      "ماشف": 7661,
      "جيبي": 7662,
      "صل": 7663,
      "عملية": 7664,
      "##لسو": 7665,
      "هاكي": 7666,
      "الصد": 7667,
      "##لامحو": 7668,
      "الست": 7669,
      "لعندهم": 7670,
      "الضي": 7671,
      "##ابقة": 7672,
      "بالذ": 7673,
      "ضربة": 7674,
      "تحدي": 7675,
      "كالسة": 7676,
      "##متو": 7677,
      "ديجا": 7678,
      "عشرة": 7679,
      "سقما": 7680,
      "البشر": 7681,
      "لمكتب": 7682,
      "تقبل": 7683,
      "يشوفها": 7684,
      "تعطي": 7685,
      "الجمال": 7686,
      "محرو": 7687,
      "كيبكي": 7688,
      "حيدي": 7689,
      "دعوة": 7690,
      "والق": 7691,
      "نورة": 7692,
      "قلتها": 7693,
      "اريا": 7694,
      "##اقل": 7695,
      "مخنز": 7696,
      "ورحمة": 7697,
      "بقينا": 7698,
      "دايرا": 7699,
      "فحالي": 7700,
      "الحلوة": 7701,
      "تقر": 7702,
      "##زواج": 7703,
      "نتو": 7704,
      "لبحر": 7705,
      "الخر": 7706,
      "عدن": 7707,
      "نعيمة": 7708,
      "رغيب": 7709,
      "ماكت": 7710,
      "معه": 7711,
      "##خد": 7712,
      "##دوى": 7713,
      "السكر": 7714,
      "##وداء": 7715,
      "يبغي": 7716,
      "فاك": 7717,
      "وكتشوف": 7718,
      "##وند": 7719,
      "##بكة": 7720,
      "اثر": 7721,
      "درنا": 7722,
      "تونس": 7723,
      "غندير": 7724,
      "##روض": 7725,
      "مسوق": 7726,
      "عيان": 7727,
      "##اجع": 7728,
      "ايهم": 7729,
      "##سالي": 7730,
      "##شل": 7731,
      "##10": 7732,
      "ديمارا": 7733,
      "شناي": 7734,
      "نر": 7735,
      "ولم": 7736,
      "نرتاح": 7737,
      "وهذا": 7738,
      "##قاتها": 7739,
      "شكر": 7740,
      "والغ": 7741,
      "الخاصة": 7742,
      "رف": 7743,
      "دارهم": 7744,
      "يقولو": 7745,
      "مبغاتش": 7746,
      "حقو": 7747,
      "زاينة": 7748,
      "سين": 7749,
      "##ستاهل": 7750,
      "ماتع": 7751,
      "عارفاه": 7752,
      "خاطرها": 7753,
      "وجد": 7754,
      "##طن": 7755,
      "شخصيا": 7756,
      "صلي": 7757,
      "غرام": 7758,
      "ريال": 7759,
      "يسمح": 7760,
      "وعق": 7761,
      "عرفتو": 7762,
      "خاطر": 7763,
      "مبقيتش": 7764,
      "##وليسي": 7765,
      "شار": 7766,
      "لرج": 7767,
      "بتح": 7768,
      "راحة": 7769,
      "ماباغي": 7770,
      "فالاول": 7771,
      "##حملش": 7772,
      "بتوتر": 7773,
      "##ناع": 7774,
      "ايكون": 7775,
      "عفت": 7776,
      "حقك": 7777,
      "##صاص": 7778,
      "##انيش": 7779,
      "##تيك": 7780,
      "ورجعت": 7781,
      "وغي": 7782,
      "تجمعو": 7783,
      "كتج": 7784,
      "فيد": 7785,
      "يقرب": 7786,
      "اورو": 7787,
      "##كال": 7788,
      "##لحة": 7789,
      "تعص": 7790,
      "حركة": 7791,
      "##دث": 7792,
      "كورة": 7793,
      "لقاه": 7794,
      "كرم": 7795,
      "عريان": 7796,
      "منز": 7797,
      "##كمش": 7798,
      "##بوها": 7799,
      "وشحال": 7800,
      "##قيش": 7801,
      "الاحسن": 7802,
      "سبحانه": 7803,
      "سليمة": 7804,
      "##عيب": 7805,
      "مخاص": 7806,
      "ومرة": 7807,
      "فما": 7808,
      "##موتو": 7809,
      "قتلت": 7810,
      "موف": 7811,
      "لفيديو": 7812,
      "in": 7813,
      "##غيني": 7814,
      "كتم": 7815,
      "##اوا": 7816,
      "##اقية": 7817,
      "وليس": 7818,
      "##رحو": 7819,
      "##نبي": 7820,
      "جنات": 7821,
      "قش": 7822,
      "خمسة": 7823,
      "المدة": 7824,
      "نبقاو": 7825,
      "شبه": 7826,
      "الولة": 7827,
      "صبعها": 7828,
      "غمزها": 7829,
      "تند": 7830,
      "التحت": 7831,
      "كملت": 7832,
      "بالها": 7833,
      "كاتش": 7834,
      "شهيد": 7835,
      "بيتي": 7836,
      "##جح": 7837,
      "يغادر": 7838,
      "تلقى": 7839,
      "حجبانها": 7840,
      "عنيه": 7841,
      "وكيشوف": 7842,
      "وعرف": 7843,
      "برد": 7844,
      "##غيتيش": 7845,
      "نشوفها": 7846,
      "##احي": 7847,
      "محسن": 7848,
      "الزنقة": 7849,
      "بخجل": 7850,
      "##user": 7851,
      "لسانها": 7852,
      "##نص": 7853,
      "منش": 7854,
      "خليت": 7855,
      "حمق": 7856,
      "بنظرة": 7857,
      "نوريك": 7858,
      "الزهر": 7859,
      "لهضرة": 7860,
      "جوع": 7861,
      "الخاطر": 7862,
      "كادير": 7863,
      "##اعات": 7864,
      "تسكت": 7865,
      "ندخلو": 7866,
      "شداتو": 7867,
      "##ali": 7868,
      "##امين": 7869,
      "خرجتي": 7870,
      "لانو": 7871,
      "موا": 7872,
      "##ابه": 7873,
      "وفاش": 7874,
      "ونجي": 7875,
      "يعيش": 7876,
      "قدامك": 7877,
      "##صها": 7878,
      "هانتا": 7879,
      "لمدة": 7880,
      "عرق": 7881,
      "الرك": 7882,
      "لاول": 7883,
      "##ati": 7884,
      "النبي": 7885,
      "صالح": 7886,
      "لولي": 7887,
      "##سيون": 7888,
      "ردها": 7889,
      "نهاييا": 7890,
      "تطلع": 7891,
      "بغي": 7892,
      "النف": 7893,
      "جار": 7894,
      "الغالية": 7895,
      "عارفك": 7896,
      "بور": 7897,
      "يقو": 7898,
      "الورقة": 7899,
      "##راهم": 7900,
      "##ناسب": 7901,
      "الزو": 7902,
      "ده": 7903,
      "##بكيش": 7904,
      "ايمي": 7905,
      "فالدروج": 7906,
      "##كتورة": 7907,
      "الامل": 7908,
      "رجعتي": 7909,
      "مدخل": 7910,
      "##تاة": 7911,
      "وتا": 7912,
      "المعلومات": 7913,
      "عاقد": 7914,
      "دخلها": 7915,
      "وشعرها": 7916,
      "حاجبها": 7917,
      "جزء": 7918,
      "راوية": 7919,
      "قبر": 7920,
      "كانه": 7921,
      "يومين": 7922,
      "السع": 7923,
      "لقيتو": 7924,
      "فالاخير": 7925,
      "الاحساس": 7926,
      "##ماج": 7927,
      "خاصهم": 7928,
      "ازين": 7929,
      "كته": 7930,
      "##مود": 7931,
      "لقى": 7932,
      "هضرتو": 7933,
      "مافهمتش": 7934,
      "نازلة": 7935,
      "##رغ": 7936,
      "##لينا": 7937,
      "##تاق": 7938,
      "ومك": 7939,
      "هزاتو": 7940,
      "##فاع": 7941,
      "تبعها": 7942,
      "صغي": 7943,
      "بيجامة": 7944,
      "سخونة": 7945,
      "النق": 7946,
      "مظ": 7947,
      "##صلك": 7948,
      "##ايع": 7949,
      "ايمتا": 7950,
      "لكو": 7951,
      "نبدل": 7952,
      "يحس": 7953,
      "##عيشو": 7954,
      "كاتجري": 7955,
      "##قدش": 7956,
      "طلعها": 7957,
      "افكار": 7958,
      "وسناء": 7959,
      "حالتو": 7960,
      "عربي": 7961,
      "الموقف": 7962,
      "يبدا": 7963,
      "##دى": 7964,
      "العنوان": 7965,
      "متنس": 7966,
      "ماكاينش": 7967,
      "وقلبها": 7968,
      "فالصالون": 7969,
      "##اطا": 7970,
      "يمشيو": 7971,
      "قيمة": 7972,
      "شير": 7973,
      "مرك": 7974,
      "قريت": 7975,
      "طاير": 7976,
      "##قولش": 7977,
      "والحمد": 7978,
      "داها": 7979,
      "##روي": 7980,
      "ويلا": 7981,
      "الدوش": 7982,
      "ايوب": 7983,
      "لعرس": 7984,
      "##قولها": 7985,
      "اصحاب": 7986,
      "تهدر": 7987,
      "عاطي": 7988,
      "ناج": 7989,
      "##داث": 7990,
      "تهدن": 7991,
      "العصير": 7992,
      "التش": 7993,
      "ثاير": 7994,
      "قيصر": 7995,
      "قنت": 7996,
      "##بيلات": 7997,
      "كيب": 7998,
      "##غيتي": 7999,
      "زرب": 8000,
      "وسي": 8001,
      "ادهم": 8002,
      "نخدم": 8003,
      "##وتاني": 8004,
      "دارك": 8005,
      "##فكير": 8006,
      "##جبني": 8007,
      "اخوتي": 8008,
      "مالكم": 8009,
      "مهمة": 8010,
      "البيض": 8011,
      "فابور": 8012,
      "جاتك": 8013,
      "محتوى": 8014,
      "سرير": 8015,
      "رفض": 8016,
      "بعدي": 8017,
      "##حيح": 8018,
      "##ديق": 8019,
      "الورد": 8020,
      "ريحتو": 8021,
      "حاولي": 8022,
      "##والو": 8023,
      "الفيديوهات": 8024,
      "##تيز": 8025,
      "عندما": 8026,
      "زرق": 8027,
      "فيصل": 8028,
      "ساهي": 8029,
      "##عدة": 8030,
      "##ir": 8031,
      "الزمان": 8032,
      "مشف": 8033,
      "بيدي": 8034,
      "##زك": 8035,
      "وكاين": 8036,
      "ثلاثة": 8037,
      "النساء": 8038,
      "كنحماق": 8039,
      "معنقها": 8040,
      "مبدع": 8041,
      "لحمها": 8042,
      "تقي": 8043,
      "فتيحة": 8044,
      "معندك": 8045,
      "##ميه": 8046,
      "تقتل": 8047,
      "##ظي": 8048,
      "المث": 8049,
      "داخلين": 8050,
      "بعمق": 8051,
      "تفكير": 8052,
      "##هتها": 8053,
      "نضت": 8054,
      "جاتو": 8055,
      "##خليه": 8056,
      "صند": 8057,
      "كايبان": 8058,
      "el": 8059,
      "راب": 8060,
      "بالدموع": 8061,
      "ثق": 8062,
      "رنيم": 8063,
      "##وبر": 8064,
      "##كرش": 8065,
      "اولد": 8066,
      "بالشوية": 8067,
      "دماغ": 8068,
      "لحرام": 8069,
      "ساف": 8070,
      "كتضحك": 8071,
      "ويه": 8072,
      "كيمشي": 8073,
      "تيليفونو": 8074,
      "فول": 8075,
      "كاط": 8076,
      "عني": 8077,
      "القوة": 8078,
      "كتافو": 8079,
      "الدول": 8080,
      "هء": 8081,
      "##يرية": 8082,
      "بعدو": 8083,
      "الاسم": 8084,
      "##ميك": 8085,
      "لماذا": 8086,
      "حرف": 8087,
      "وماب": 8088,
      "##اضع": 8089,
      "كلما": 8090,
      "افنان": 8091,
      "تام": 8092,
      "باغية": 8093,
      "ch": 8094,
      "مصيبة": 8095,
      "##رفض": 8096,
      "نقوليك": 8097,
      "##متم": 8098,
      "السعادة": 8099,
      "تعت": 8100,
      "##ستغ": 8101,
      "##ينية": 8102,
      "##كوني": 8103,
      "عر": 8104,
      "##ريها": 8105,
      "هير": 8106,
      "هاذا": 8107,
      "قاع": 8108,
      "نولي": 8109,
      "والديك": 8110,
      "وصلها": 8111,
      "لاحظ": 8112,
      "يهو": 8113,
      "يعلم": 8114,
      "عجبك": 8115,
      "صفوان": 8116,
      "يتو": 8117,
      "يدك": 8118,
      "صاحبو": 8119,
      "مصعب": 8120,
      "يقلب": 8121,
      "اركان": 8122,
      "شمن": 8123,
      "وجل": 8124,
      "تمت": 8125,
      "اشافيك": 8126,
      "##im": 8127,
      "احتر": 8128,
      "خطيرة": 8129,
      "فالعالم": 8130,
      "جنبو": 8131,
      "##عام": 8132,
      "##دش": 8133,
      "حطي": 8134,
      "عويناتها": 8135,
      "جرح": 8136,
      "حيتاش": 8137,
      "##داتش": 8138,
      "مادير": 8139,
      "شمال": 8140,
      "حقها": 8141,
      "صفية": 8142,
      "شاهد": 8143,
      "##لج": 8144,
      "ياقوت": 8145,
      "الحسن": 8146,
      "دعيو": 8147,
      "المز": 8148,
      "سوسن": 8149,
      "وبن": 8150,
      "تلقاي": 8151,
      "عفاكم": 8152,
      "نكونو": 8153,
      "قفزات": 8154,
      "re": 8155,
      "خطوات": 8156,
      "##عند": 8157,
      "بالخلعة": 8158,
      "كريست": 8159,
      "کی": 8160,
      "سميتي": 8161,
      "لحق": 8162,
      "لحبس": 8163,
      "##كرها": 8164,
      "مزالة": 8165,
      "وخلاها": 8166,
      "##داها": 8167,
      "قرات": 8168,
      "##كيز": 8169,
      "يارا": 8170,
      "خصها": 8171,
      "##حيد": 8172,
      "كسوة": 8173,
      "##بتو": 8174,
      "مولات": 8175,
      "وحش": 8176,
      "الخبر": 8177,
      "مالنا": 8178,
      "معقول": 8179,
      "قادرة": 8180,
      "##فيه": 8181,
      "بذ": 8182,
      "يهد": 8183,
      "وقلت": 8184,
      "الخلعة": 8185,
      "الكتاب": 8186,
      "جبين": 8187,
      "سنانها": 8188,
      "##بقاوش": 8189,
      "البلا": 8190,
      "##لقاه": 8191,
      "براءة": 8192,
      "مراتك": 8193,
      "صار": 8194,
      "منفو": 8195,
      "خاشي": 8196,
      "##oc": 8197,
      "كيغوت": 8198,
      "تعرض": 8199,
      "ودنيها": 8200,
      "رتاحي": 8201,
      "##ليق": 8202,
      "مباركة": 8203,
      "سابق": 8204,
      "كاظم": 8205,
      "زيت": 8206,
      "##ركل": 8207,
      "شعل": 8208,
      "قلة": 8209,
      "##ليات": 8210,
      "رجلها": 8211,
      "فقلبها": 8212,
      "حست": 8213,
      "تاريخ": 8214,
      "وهم": 8215,
      "احت": 8216,
      "##متها": 8217,
      "ميرا": 8218,
      "ناخ": 8219,
      "##ناح": 8220,
      "ديها": 8221,
      "##خلف": 8222,
      "جبهتو": 8223,
      "شان": 8224,
      "قديم": 8225,
      "##بهاش": 8226,
      "##ريات": 8227,
      "نعسي": 8228,
      "سلا": 8229,
      "يل": 8230,
      "كيز": 8231,
      "##رفين": 8232,
      "بكت": 8233,
      "صرب": 8234,
      "##لهاش": 8235,
      "خصنا": 8236,
      "عبارة": 8237,
      "لاعبين": 8238,
      "بصحة": 8239,
      "بحرقة": 8240,
      "اشهر": 8241,
      "ma": 8242,
      "دفنة": 8243,
      "مخبي": 8244,
      "##عرفي": 8245,
      "كيقرب": 8246,
      "وعاود": 8247,
      "موقف": 8248,
      "تستاهلي": 8249,
      "##بلاد": 8250,
      "رانيا": 8251,
      "جوديا": 8252,
      "be": 8253,
      "سلاح": 8254,
      "يتش": 8255,
      "##عرو": 8256,
      "##ونيش": 8257,
      "السل": 8258,
      "بنكيران": 8259,
      "مسيو": 8260,
      "##امها": 8261,
      "كنتفرج": 8262,
      "تخسر": 8263,
      "مره": 8264,
      "مغرب": 8265,
      "ماكنتش": 8266,
      "##جليزية": 8267,
      "الڤ": 8268,
      "سربي": 8269,
      "24": 8270,
      "مفاهم": 8271,
      "##تيق": 8272,
      "نعست": 8273,
      "طلات": 8274,
      "اتجاه": 8275,
      "ماغاي": 8276,
      "استغفر": 8277,
      "رز": 8278,
      "يوما": 8279,
      "##احت": 8280,
      "ذاك": 8281,
      "##di": 8282,
      "نتاع": 8283,
      "##انوت": 8284,
      "لعندي": 8285,
      "داف": 8286,
      "غض": 8287,
      "##ملية": 8288,
      "##موم": 8289,
      "وانتي": 8290,
      "وكمل": 8291,
      "كتعجبني": 8292,
      "مورا": 8293,
      "معندوش": 8294,
      "دفعها": 8295,
      "هضرتي": 8296,
      "##غني": 8297,
      "##اسمين": 8298,
      "كايش": 8299,
      "🇲🇦": 8300,
      "تنعسي": 8301,
      "لفطور": 8302,
      "فلسطين": 8303,
      "مكين": 8304,
      "الصحافة": 8305,
      "مقدرتش": 8306,
      "اسهل": 8307,
      "##ديال": 8308,
      "كتخرج": 8309,
      "كثيرا": 8310,
      "نهاية": 8311,
      "كع": 8312,
      "مابغيت": 8313,
      "اتو": 8314,
      "##ريض": 8315,
      "الوالدة": 8316,
      "حمقة": 8317,
      "al": 8318,
      "عاودي": 8319,
      "##اديا": 8320,
      "معلومات": 8321,
      "كتمشى": 8322,
      "الشخصية": 8323,
      "مسموع": 8324,
      "##نبها": 8325,
      "تسنا": 8326,
      "عايلتك": 8327,
      "##صبر": 8328,
      "##اجه": 8329,
      "مقطع": 8330,
      "قلوب": 8331,
      "زيدان": 8332,
      "البطولة": 8333,
      "##راء": 8334,
      "والجميل": 8335,
      "##باني": 8336,
      "رجليك": 8337,
      "هاذشي": 8338,
      "فا": 8339,
      "##قولك": 8340,
      "##اهة": 8341,
      "مفتو": 8342,
      "الافكار": 8343,
      "وشدات": 8344,
      "قاصح": 8345,
      "مخنزرة": 8346,
      "##خك": 8347,
      "حطت": 8348,
      "نازلين": 8349,
      "دخلنا": 8350,
      "##طلقو": 8351,
      "وحل": 8352,
      "##عاودش": 8353,
      "هب": 8354,
      "شعرك": 8355,
      "رجعي": 8356,
      "ارتاح": 8357,
      "جواهر": 8358,
      "كتير": 8359,
      "فبلاصة": 8360,
      "غانت": 8361,
      "روس": 8362,
      "نعت": 8363,
      "مقادر": 8364,
      "عيونها": 8365,
      "منوع": 8366,
      "المعنى": 8367,
      "لعام": 8368,
      "ودبا": 8369,
      "وصف": 8370,
      "##واد": 8371,
      "كطلع": 8372,
      "##ريدة": 8373,
      "##ركو": 8374,
      "##لقاها": 8375,
      "دفعاتو": 8376,
      "الزاج": 8377,
      "غاندير": 8378,
      "القطة": 8379,
      "##قرة": 8380,
      "وخلا": 8381,
      "عرفاتو": 8382,
      "ظهر": 8383,
      "##بث": 8384,
      "##ينغ": 8385,
      "بطل": 8386,
      "تصور": 8387,
      "نظرات": 8388,
      "فضلك": 8389,
      "سف": 8390,
      "ياب": 8391,
      "يطيح": 8392,
      "نم": 8393,
      "وهد": 8394,
      "فحض": 8395,
      "برودة": 8396,
      "##ميش": 8397,
      "الدق": 8398,
      "مود": 8399,
      "##فعو": 8400,
      "بالط": 8401,
      "صاحبتي": 8402,
      "صاي": 8403,
      "فالمو": 8404,
      "عطاتها": 8405,
      "ريحتها": 8406,
      "لسانو": 8407,
      "نا": 8408,
      "ياه": 8409,
      "اخرين": 8410,
      "الرباط": 8411,
      "سوف": 8412,
      "شادين": 8413,
      "بالب": 8414,
      "##بدلو": 8415,
      "##ركاته": 8416,
      "امها": 8417,
      "خليل": 8418,
      "ياخذ": 8419,
      "هال": 8420,
      "اصل": 8421,
      "فبالك": 8422,
      "زادو": 8423,
      "حليت": 8424,
      "##يتيني": 8425,
      "##موش": 8426,
      "الفديو": 8427,
      "##حماق": 8428,
      "##باه": 8429,
      "الاصل": 8430,
      "##اقد": 8431,
      "جامعة": 8432,
      "##طري": 8433,
      "وفنفس": 8434,
      "راء": 8435,
      "الكسوة": 8436,
      "وتجي": 8437,
      "الوطن": 8438,
      "تنهدت": 8439,
      "عوتاني": 8440,
      "احفظ": 8441,
      "التوفيق": 8442,
      "##اليه": 8443,
      "مراق": 8444,
      "##نهد": 8445,
      "##هاتك": 8446,
      "ويحفظ": 8447,
      "##علم": 8448,
      "الماضي": 8449,
      "بلاصتك": 8450,
      "##ادها": 8451,
      "##قيتيش": 8452,
      "يدور": 8453,
      "الحركة": 8454,
      "اسطورة": 8455,
      "##طيع": 8456,
      "ريمان": 8457,
      "تجلس": 8458,
      "نطلب": 8459,
      "25": 8460,
      "صاد": 8461,
      "الحمار": 8462,
      "امونة": 8463,
      "كولها": 8464,
      "##ستا": 8465,
      "وراك": 8466,
      "هازا": 8467,
      "هيء": 8468,
      "ديرها": 8469,
      "جيهتو": 8470,
      "اهاه": 8471,
      "وسع": 8472,
      "خديت": 8473,
      "بنظرات": 8474,
      "شاعلة": 8475,
      "مجب": 8476,
      "##بيس": 8477,
      "ناخد": 8478,
      "مكتوب": 8479,
      "انتم": 8480,
      "خلال": 8481,
      "##امس": 8482,
      "مغان": 8483,
      "الكبيرة": 8484,
      "يجعل": 8485,
      "لبنى": 8486,
      "الخبار": 8487,
      "فوقو": 8488,
      "ناموسية": 8489,
      "##خن": 8490,
      "كتنهج": 8491,
      "الطوموبيل": 8492,
      "بصر": 8493,
      "الشيفور": 8494,
      "مشاف": 8495,
      "سيفط": 8496,
      "تاحد": 8497,
      "مستوى": 8498,
      "##ue": 8499,
      "##قام": 8500,
      "فران": 8501,
      "ختار": 8502,
      "خلدون": 8503,
      "نضرب": 8504,
      "##ur": 8505,
      "كدوز": 8506,
      "وعن": 8507,
      "##خليش": 8508,
      "كرشي": 8509,
      "ويجي": 8510,
      "المرح": 8511,
      "كتهدر": 8512,
      "سط": 8513,
      "صي": 8514,
      "لقيتها": 8515,
      "الحوت": 8516,
      "روب": 8517,
      "رخي": 8518,
      "##اقم": 8519,
      "قاط": 8520,
      "ولح": 8521,
      "الذرية": 8522,
      "الاعدام": 8523,
      "##اسيس": 8524,
      "الحكم": 8525,
      "وفال": 8526,
      "##عبة": 8527,
      "##ريو": 8528,
      "##ضم": 8529,
      "تسالي": 8530,
      "فكرت": 8531,
      "مسمع": 8532,
      "لاحول": 8533,
      "ونزلات": 8534,
      "تمر": 8535,
      "الجزء": 8536,
      "بتسامة": 8537,
      "اخبار": 8538,
      "قلنا": 8539,
      "اليا": 8540,
      "لقي": 8541,
      "رسم": 8542,
      "وحق": 8543,
      "ورب": 8544,
      "اصح": 8545,
      "وقبل": 8546,
      "طلقي": 8547,
      "##رجي": 8548,
      "ساخ": 8549,
      "ترجعي": 8550,
      "##اصمة": 8551,
      "الشف": 8552,
      "طوال": 8553,
      "##ستان": 8554,
      "##دمات": 8555,
      "تهبط": 8556,
      "لاخور": 8557,
      "تدوي": 8558,
      "##ضار": 8559,
      "امريكا": 8560,
      "تحكم": 8561,
      "لجيهة": 8562,
      "##غات": 8563,
      "نتمنا": 8564,
      "##لاف": 8565,
      "الخلي": 8566,
      "فلع": 8567,
      "التاريخ": 8568,
      "دراعو": 8569,
      "ضعيف": 8570,
      "فمر": 8571,
      "##نم": 8572,
      "صغر": 8573,
      "توحشناك": 8574,
      "ماعندك": 8575,
      "زب": 8576,
      "حاولت": 8577,
      "ايناس": 8578,
      "براسك": 8579,
      "غمز": 8580,
      "نظرة": 8581,
      "كيلو": 8582,
      "طبيعية": 8583,
      "الصالون": 8584,
      "ولادك": 8585,
      "كترمش": 8586,
      "الوقفة": 8587,
      "كيل": 8588,
      "تجبد": 8589,
      "قلي": 8590,
      "##ديقة": 8591,
      "##المة": 8592,
      "منانة": 8593,
      "اوليدي": 8594,
      "هىء": 8595,
      "سخف": 8596,
      "خاس": 8597,
      "عج": 8598,
      "تحمل": 8599,
      "وسد": 8600,
      "هضرتها": 8601,
      "##وليك": 8602,
      "موك": 8603,
      "##هولة": 8604,
      "طريقو": 8605,
      "##طاليا": 8606,
      "فالفي": 8607,
      "ورد": 8608,
      "اعمي": 8609,
      "هده": 8610,
      "##اجين": 8611,
      "لمغاربة": 8612,
      "كنهضر": 8613,
      "##os": 8614,
      "معنا": 8615,
      "ريحانة": 8616,
      "##سرو": 8617,
      "الشه": 8618,
      "لحوايج": 8619,
      "حشومه": 8620,
      "بتر": 8621,
      "لامي": 8622,
      "##انش": 8623,
      "يعاود": 8624,
      "شهاد": 8625,
      "ميري": 8626,
      "البكا": 8627,
      "التيلي": 8628,
      "ثانية": 8629,
      "##هاز": 8630,
      "بعنف": 8631,
      "وليداتك": 8632,
      "##وجدو": 8633,
      "كيخرج": 8634,
      "متس": 8635,
      "غسان": 8636,
      "##تحان": 8637,
      "عامين": 8638,
      "العبة": 8639,
      "دخلتي": 8640,
      "يبوس": 8641,
      "الحز": 8642,
      "المدرب": 8643,
      "هاحنا": 8644,
      "ضرباتو": 8645,
      "##اوك": 8646,
      "كنق": 8647,
      "النجاح": 8648,
      "وفتح": 8649,
      "العينين": 8650,
      "تمات": 8651,
      "سلامة": 8652,
      "##ورا": 8653,
      "بمجرد": 8654,
      "وبداو": 8655,
      "ياكل": 8656,
      "كارلوس": 8657,
      "بست": 8658,
      "الحزن": 8659,
      "الفقصة": 8660,
      "وعارف": 8661,
      "ودوز": 8662,
      "les": 8663,
      "كتفرج": 8664,
      "نحط": 8665,
      "الكار": 8666,
      "خالي": 8667,
      "ردات": 8668,
      "##شيط": 8669,
      "ملامحو": 8670,
      "##لبسو": 8671,
      "وحلات": 8672,
      "عنها": 8673,
      "مجمعين": 8674,
      "مخص": 8675,
      "طارق": 8676,
      "الابيض": 8677,
      "سمعي": 8678,
      "صباط": 8679,
      "اشتركت": 8680,
      "اقرب": 8681,
      "داود": 8682,
      "البرو": 8683,
      "اشارة": 8684,
      "التن": 8685,
      "ربعة": 8686,
      "حاجب": 8687,
      "كنفكر": 8688,
      "كلامي": 8689,
      "كتزيد": 8690,
      "##لاتش": 8691,
      "مافيها": 8692,
      "ارت": 8693,
      "مدا": 8694,
      "تصويرة": 8695,
      "لارا": 8696,
      "لخر": 8697,
      "وهادي": 8698,
      "اسبانيا": 8699,
      "اصلان": 8700,
      "بالبكا": 8701,
      "ab": 8702,
      "وتبكي": 8703,
      "نعطي": 8704,
      "باسم": 8705,
      "lik": 8706,
      "وباش": 8707,
      "##موس": 8708,
      "كاير": 8709,
      "فوجه": 8710,
      "الضر": 8711,
      "الحرب": 8712,
      "دوزو": 8713,
      "لود": 8714,
      "فحالو": 8715,
      "بالام": 8716,
      "حقا": 8717,
      "عالية": 8718,
      "امور": 8719,
      "لسما": 8720,
      "جسور": 8721,
      "##یر": 8722,
      "الكلاب": 8723,
      "كينهج": 8724,
      "##ريز": 8725,
      "الفرقة": 8726,
      "##طيحو": 8727,
      "عايلتها": 8728,
      "الحيوان": 8729,
      "وبر": 8730,
      "باليل": 8731,
      "يقتل": 8732,
      "تزو": 8733,
      "##نعاس": 8734,
      "عبي": 8735,
      "فقد": 8736,
      "منس": 8737,
      "نلبس": 8738,
      "انمشي": 8739,
      "لعشا": 8740,
      "عيش": 8741,
      "الامن": 8742,
      "غتمشي": 8743,
      "متافق": 8744,
      "ملكة": 8745,
      "قدو": 8746,
      "كرة": 8747,
      "##فتح": 8748,
      "سلطان": 8749,
      "عينيهم": 8750,
      "مابين": 8751,
      "زمرد": 8752,
      "الغربة": 8753,
      "قرار": 8754,
      "طايحة": 8755,
      "me": 8756,
      "هاكة": 8757,
      "راسكم": 8758,
      "وخاص": 8759,
      "تاكد": 8760,
      "هبطت": 8761,
      "العابدين": 8762,
      "##ie": 8763,
      "##اسمت": 8764,
      "ونهار": 8765,
      "##وايع": 8766,
      "##عط": 8767,
      "وتقول": 8768,
      "عار": 8769,
      "هالة": 8770,
      "الملف": 8771,
      "ينعس": 8772,
      "راحتك": 8773,
      "سح": 8774,
      "بحنان": 8775,
      "وزادت": 8776,
      "##یه": 8777,
      "تشرب": 8778,
      "مانقدرش": 8779,
      "فذ": 8780,
      "غاديا": 8781,
      "##عية": 8782,
      "ايها": 8783,
      "تانية": 8784,
      "وتر": 8785,
      "ناكل": 8786,
      "عاقل": 8787,
      "##ادات": 8788,
      "وترجع": 8789,
      "شح": 8790,
      "##ضت": 8791,
      "وبت": 8792,
      "كثيرة": 8793,
      "##بيها": 8794,
      "بينها": 8795,
      "##بطب": 8796,
      "هاها": 8797,
      "حطاتو": 8798,
      "كملي": 8799,
      "والاخ": 8800,
      "حلال": 8801,
      "الحضة": 8802,
      "الغيرة": 8803,
      "فكرشها": 8804,
      "بيان": 8805,
      "جبتي": 8806,
      "##بوبة": 8807,
      "سميت": 8808,
      "طاب": 8809,
      "غل": 8810,
      "##ماتة": 8811,
      "فايت": 8812,
      "بلعاني": 8813,
      "en": 8814,
      "طيبة": 8815,
      "نبدا": 8816,
      "روت": 8817,
      "حسابي": 8818,
      "وباسها": 8819,
      "هاكدا": 8820,
      "مشغول": 8821,
      "خلف": 8822,
      "افرح": 8823,
      "##ماس": 8824,
      "##ic": 8825,
      "بالمع": 8826,
      "الغة": 8827,
      "حسبنا": 8828,
      "بسيطة": 8829,
      "لواليد": 8830,
      "متبعة": 8831,
      "متن": 8832,
      "الاطفال": 8833,
      "فيق": 8834,
      "فطور": 8835,
      "انواع": 8836,
      "باردة": 8837,
      "المنظر": 8838,
      "##ناب": 8839,
      "وتك": 8840,
      "دراهم": 8841,
      "نصر": 8842,
      "بنو": 8843,
      "شامة": 8844,
      "##ضعف": 8845,
      "واجد": 8846,
      "##لبسي": 8847,
      "مارك": 8848,
      "المليون": 8849,
      "كاتس": 8850,
      "عايلتي": 8851,
      "##ونوبيل": 8852,
      "ماسمع": 8853,
      "ريت": 8854,
      "تابعها": 8855,
      "شادا": 8856,
      "خر": 8857,
      "فيقي": 8858,
      "اخوي": 8859,
      "##ونسي": 8860,
      "اخور": 8861,
      "بينك": 8862,
      "الدوا": 8863,
      "##لوكي": 8864,
      "عصير": 8865,
      "باخ": 8866,
      "##بيق": 8867,
      "متك": 8868,
      "يخدم": 8869,
      "le": 8870,
      "فيدي": 8871,
      "جمعي": 8872,
      "##فعل": 8873,
      "خان": 8874,
      "يرد": 8875,
      "تقل": 8876,
      "وهبطات": 8877,
      "فالو": 8878,
      "فحالا": 8879,
      "ساكنة": 8880,
      "غيرك": 8881,
      "توس": 8882,
      "كنظن": 8883,
      "بلان": 8884,
      "طلقها": 8885,
      "قدم": 8886,
      "##ts": 8887,
      "اشي": 8888,
      "فحياتك": 8889,
      "بلادنا": 8890,
      "معندو": 8891,
      "##رجان": 8892,
      "قانون": 8893,
      "##قاوش": 8894,
      "مخن": 8895,
      "وهنا": 8896,
      "ينس": 8897,
      "المط": 8898,
      "ماتخافيش": 8899,
      "الريحة": 8900,
      "طيارة": 8901,
      "اعو": 8902,
      "لشركة": 8903,
      "يمس": 8904,
      "##ديلة": 8905,
      "كتحل": 8906,
      "##ضيم": 8907,
      "الاه": 8908,
      "امكن": 8909,
      "بينو": 8910,
      "كايدير": 8911,
      "وبركاته": 8912,
      "ادخل": 8913,
      "##ناتك": 8914,
      "حلت": 8915,
      "ساكن": 8916,
      "16": 8917,
      "حار": 8918,
      "خبط": 8919,
      "التص": 8920,
      "نسات": 8921,
      "دوزت": 8922,
      "17": 8923,
      "فصدرو": 8924,
      "فيونا": 8925,
      "##our": 8926,
      "سما": 8927,
      "##است": 8928,
      "لدر": 8929,
      "عيطات": 8930,
      "ترتاحي": 8931,
      "الدورة": 8932,
      "نعرفو": 8933,
      "خداو": 8934,
      "التاني": 8935,
      "تسد": 8936,
      "##اسب": 8937,
      "##وفو": 8938,
      "##وازنة": 8939,
      "يحيد": 8940,
      "باراكا": 8941,
      "حدو": 8942,
      "اشت": 8943,
      "##اطي": 8944,
      "منح": 8945,
      "##احه": 8946,
      "البكية": 8947,
      "وته": 8948,
      "لخرا": 8949,
      "الاخبار": 8950,
      "بيدها": 8951,
      "يفر": 8952,
      "السلاح": 8953,
      "براحة": 8954,
      "##ودة": 8955,
      "##سكر": 8956,
      "##ويس": 8957,
      "جراتها": 8958,
      "خرى": 8959,
      "ديل": 8960,
      "حقيقة": 8961,
      "منعرف": 8962,
      "وقفها": 8963,
      "طه": 8964,
      "وجب": 8965,
      "الشاف": 8966,
      "المجتمع": 8967,
      "ستي": 8968,
      "نفر": 8969,
      "ساي": 8970,
      "القرعة": 8971,
      "الزبل": 8972,
      "المعلم": 8973,
      "زوجة": 8974,
      "تاكلي": 8975,
      "نساي": 8976,
      "مبقا": 8977,
      "نجود": 8978,
      "##فاف": 8979,
      "##شت": 8980,
      "##فيد": 8981,
      "عيون": 8982,
      "##لفت": 8983,
      "قلبت": 8984,
      "لوجين": 8985,
      "هابطة": 8986,
      "##غداو": 8987,
      "شغف": 8988,
      "الغضب": 8989,
      "عبدو": 8990,
      "مطلوق": 8991,
      "اكل": 8992,
      "شفتيها": 8993,
      "خدمتو": 8994,
      "رسالة": 8995,
      "##رفق": 8996,
      "اسبرو": 8997,
      "الشو": 8998,
      "كايع": 8999,
      "يرتاح": 9000,
      "بنس": 9001,
      "##ساد": 9002,
      "ودخلت": 9003,
      "شهي": 9004,
      "##دح": 9005,
      "بالاح": 9006,
      "بغيتيني": 9007,
      "جنان": 9008,
      "لتو": 9009,
      "قبلها": 9010,
      "بسيف": 9011,
      "##قوها": 9012,
      "عجباتني": 9013,
      "مايا": 9014,
      "كيحك": 9015,
      "البيضاء": 9016,
      "نتيجة": 9017,
      "حاجه": 9018,
      "هزي": 9019,
      "##وبة": 9020,
      "فضل": 9021,
      "الفريق": 9022,
      "نديرها": 9023,
      "ولك": 9024,
      "وجدي": 9025,
      "المال": 9026,
      "كاتح": 9027,
      "لكلام": 9028,
      "بدموع": 9029,
      "ياريت": 9030,
      "يدوي": 9031,
      "سهي": 9032,
      "النار": 9033,
      "تقال": 9034,
      "مبر": 9035,
      "##مرات": 9036,
      "تشري": 9037,
      "كوك": 9038,
      "##كور": 9039,
      "##خط": 9040,
      "تلافت": 9041,
      "حناكها": 9042,
      "لحضة": 9043,
      "الغزالة": 9044,
      "وهضر": 9045,
      "مدريد": 9046,
      "حنى": 9047,
      "##تاص": 9048,
      "نتس": 9049,
      "فحين": 9050,
      "##قيقية": 9051,
      "حلمي": 9052,
      "ويفرح": 9053,
      "حطاتها": 9054,
      "بلد": 9055,
      "حوي": 9056,
      "##عدي": 9057,
      "راسنا": 9058,
      "##تصاب": 9059,
      "وجبد": 9060,
      "فاتجاه": 9061,
      "##داي": 9062,
      "ايش": 9063,
      "لراسك": 9064,
      "ذر": 9065,
      "العقد": 9066,
      "السماء": 9067,
      "دروج": 9068,
      "لمص": 9069,
      "الزيت": 9070,
      "انشاله": 9071,
      "قالتها": 9072,
      "كرشو": 9073,
      "##اوني": 9074,
      "##وجة": 9075,
      "مشكلة": 9076,
      "تكت": 9077,
      "ثمن": 9078,
      "تهلا": 9079,
      "بحي": 9080,
      "تشو": 9081,
      "مراة": 9082,
      "الزي": 9083,
      "بركة": 9084,
      "##ميات": 9085,
      "##كريات": 9086,
      "لخدم": 9087,
      "تور": 9088,
      "##ليهم": 9089,
      "عميق": 9090,
      "تاد": 9091,
      "##قوليه": 9092,
      "ولادها": 9093,
      "الوازنة": 9094,
      "مرتك": 9095,
      "اكمل": 9096,
      "جمعة": 9097,
      "عشر": 9098,
      "##كيط": 9099,
      "متبقاش": 9100,
      "تبعاتو": 9101,
      "تبوس": 9102,
      "البرنامج": 9103,
      "##ادس": 9104,
      "الغي": 9105,
      "2016": 9106,
      "بالان": 9107,
      "سميتك": 9108,
      "كنو": 9109,
      "حمرة": 9110,
      "##نسي": 9111,
      "تاق": 9112,
      "بديتي": 9113,
      "##غال": 9114,
      "موح": 9115,
      "ماحس": 9116,
      "غنو": 9117,
      "كتقاد": 9118,
      "نقدرو": 9119,
      "the": 9120,
      "فتحت": 9121,
      "وجر": 9122,
      "مغات": 9123,
      "صحيحة": 9124,
      "##زلو": 9125,
      "تنطق": 9126,
      "مكيت": 9127,
      "##عرفوش": 9128,
      "العروسة": 9129,
      "14": 9130,
      "خشات": 9131,
      "التك": 9132,
      "عرفو": 9133,
      "كنس": 9134,
      "##قوليها": 9135,
      "ماعندو": 9136,
      "يكفي": 9137,
      "قولو": 9138,
      "نديك": 9139,
      "ويحترم": 9140,
      "كيدوي": 9141,
      "##اليق": 9142,
      "واقيلة": 9143,
      "التعليم": 9144,
      "بسيط": 9145,
      "مخليها": 9146,
      "تمو": 9147,
      "##كاء": 9148,
      "##ge": 9149,
      "##اكت": 9150,
      "الدرب": 9151,
      "سان": 9152,
      "##نوش": 9153,
      "تزير": 9154,
      "##ut": 9155,
      "الخاتم": 9156,
      "احترام": 9157,
      "الصحراء": 9158,
      "وصفات": 9159,
      "وبغيت": 9160,
      "##لاجة": 9161,
      "يسكت": 9162,
      "الوراق": 9163,
      "ومشيت": 9164,
      "بنع": 9165,
      "مساحة": 9166,
      "وخصوصا": 9167,
      "هادية": 9168,
      "ترس": 9169,
      "ولادو": 9170,
      "لمخ": 9171,
      "مهما": 9172,
      "المتو": 9173,
      "توجهات": 9174,
      "##توها": 9175,
      "##رفتها": 9176,
      "حيدو": 9177,
      "##طبخ": 9178,
      "وتب": 9179,
      "غتو": 9180,
      "قرت": 9181,
      "ليام": 9182,
      "كاتقول": 9183,
      "عاودت": 9184,
      "يفرحكم": 9185,
      "##بتك": 9186,
      "كيض": 9187,
      "وفر": 9188,
      "نشرح": 9189,
      "تزوجت": 9190,
      "مسافة": 9191,
      "تفاهم": 9192,
      "لولا": 9193,
      "بالخف": 9194,
      "خيتي": 9195,
      "##جوم": 9196,
      "##ادمة": 9197,
      "##لكش": 9198,
      "خدمتي": 9199,
      "تبرك": 9200,
      "درتها": 9201,
      "ربيع": 9202,
      "هر": 9203,
      "كترجف": 9204,
      "تعمل": 9205,
      "اتصال": 9206,
      "ومد": 9207,
      "الكلمات": 9208,
      "فصمت": 9209,
      "منزل": 9210,
      "مدرب": 9211,
      "ثلاث": 9212,
      "##عار": 9213,
      "نعسو": 9214,
      "اتكون": 9215,
      "##ذار": 9216,
      "الطيارة": 9217,
      "عجبها": 9218,
      "عاصم": 9219,
      "كيبقى": 9220,
      "اليوتوب": 9221,
      "##فاهمو": 9222,
      "##سنين": 9223,
      "يوتيوبر": 9224,
      "مياسين": 9225,
      "السعودية": 9226,
      "انج": 9227,
      "تسلم": 9228,
      "خليهم": 9229,
      "وسيم": 9230,
      "لطبيب": 9231,
      "مدار": 9232,
      "كتسنا": 9233,
      "لاد": 9234,
      "وجود": 9235,
      "لقر": 9236,
      "الشفاء": 9237,
      "تولد": 9238,
      "##طينا": 9239,
      "السن": 9240,
      "##اركو": 9241,
      "متابعك": 9242,
      "افك": 9243,
      "غاب": 9244,
      "##الث": 9245,
      "وباقي": 9246,
      "##وقفو": 9247,
      "اربي": 9248,
      "##ينه": 9249,
      "ميك": 9250,
      "مكينش": 9251,
      "فترة": 9252,
      "نايضة": 9253,
      "زامل": 9254,
      "موسيو": 9255,
      "قصي": 9256,
      "الجمعة": 9257,
      "خدودها": 9258,
      "##دني": 9259,
      "##زيت": 9260,
      "كايقول": 9261,
      "يحل": 9262,
      "باباها": 9263,
      "سلسلة": 9264,
      "شوه": 9265,
      "می": 9266,
      "كيهدر": 9267,
      "كيعجبني": 9268,
      "امال": 9269,
      "الدعم": 9270,
      "الصيف": 9271,
      "الفوطوي": 9272,
      "عويشة": 9273,
      "نهيلة": 9274,
      "ودو": 9275,
      "القص": 9276,
      "مسلسل": 9277,
      "مقت": 9278,
      "اجيو": 9279,
      "معندها": 9280,
      "كثرة": 9281,
      "ای": 9282,
      "راو": 9283,
      "ازاد": 9284,
      "قطعت": 9285,
      "ريحان": 9286,
      "الكورة": 9287,
      "مفهوم": 9288,
      "هضرات": 9289,
      "بير": 9290,
      "ظهرو": 9291,
      "وست": 9292,
      "اغاني": 9293,
      "فهاذ": 9294,
      "تنو": 9295,
      "نزلي": 9296,
      "##لاقة": 9297,
      "عتق": 9298,
      "##lay": 9299,
      "خطي": 9300,
      "دورة": 9301,
      "ضغط": 9302,
      "لبسو": 9303,
      "تمشات": 9304,
      "عاطيها": 9305,
      "##دابا": 9306,
      "غالط": 9307,
      "بلوك": 9308,
      "##فوية": 9309,
      "كيسر": 9310,
      "ونفس": 9311,
      "كانشوف": 9312,
      "##لتهم": 9313,
      "يسالي": 9314,
      "##😭😂": 9315,
      "شوميز": 9316,
      "##ليو": 9317,
      "كتز": 9318,
      "##موبيلات": 9319,
      "فالوقت": 9320,
      "تحاول": 9321,
      "##لسات": 9322,
      "حدر": 9323,
      "ونتوما": 9324,
      "##ايت": 9325,
      "اعمال": 9326,
      "الكلبة": 9327,
      "صيفط": 9328,
      "شوهة": 9329,
      "ضارو": 9330,
      "##خرة": 9331,
      "##قوليش": 9332,
      "حسناء": 9333,
      "ربيعة": 9334,
      "مشت": 9335,
      "الثمن": 9336,
      "جلول": 9337,
      "ضيع": 9338,
      "دیال": 9339,
      "وسكت": 9340,
      "انير": 9341,
      "عينيا": 9342,
      "يجيبو": 9343,
      "ماقادر": 9344,
      "تربي": 9345,
      "##تونا": 9346,
      "##لقاك": 9347,
      "فوذ": 9348,
      "الفون": 9349,
      "بينهم": 9350,
      "الاحترام": 9351,
      "60": 9352,
      "فالهضرة": 9353,
      "غيد": 9354,
      "##شاء": 9355,
      "ليوما": 9356,
      "كاتحس": 9357,
      "الاكل": 9358,
      "قربو": 9359,
      "##بهم": 9360,
      "دارتها": 9361,
      "نجمع": 9362,
      "لجردة": 9363,
      "الجد": 9364,
      "##غلبية": 9365,
      "حارة": 9366,
      "داو": 9367,
      "تشت": 9368,
      "لوكان": 9369,
      "##لبة": 9370,
      "لحي": 9371,
      "ساط": 9372,
      "الوك": 9373,
      "فايقة": 9374,
      "ابتسمت": 9375,
      "دوشات": 9376,
      "اشحنلي": 9377,
      "العج": 9378,
      "نتينا": 9379,
      "القحاب": 9380,
      "واصلا": 9381,
      "##انع": 9382,
      "قمة": 9383,
      "##ابها": 9384,
      "وحس": 9385,
      "طلاق": 9386,
      "بينوار": 9387,
      "طفل": 9388,
      "غو": 9389,
      "الداخ": 9390,
      "الصور": 9391,
      "الزمر": 9392,
      "##هدي": 9393,
      "ريما": 9394,
      "اجمعين": 9395,
      "سوارت": 9396,
      "##ستغرام": 9397,
      "بالفيديو": 9398,
      "يعاونك": 9399,
      "يتبع": 9400,
      "وديما": 9401,
      "مينا": 9402,
      "حابس": 9403,
      "##نبو": 9404,
      "تحنى": 9405,
      "##شوة": 9406,
      "نجوى": 9407,
      "رعاد": 9408,
      "سيمو": 9409,
      "##لاكار": 9410,
      "حاضيها": 9411,
      "مناش": 9412,
      "##gh": 9413,
      "غيجي": 9414,
      "كتجمع": 9415,
      "مليار": 9416,
      "لمدينة": 9417,
      "فكت": 9418,
      "الحفلة": 9419,
      "##اليز": 9420,
      "##خيل": 9421,
      "ونطقات": 9422,
      "معارفش": 9423,
      "والمس": 9424,
      "العصا": 9425,
      "ويكون": 9426,
      "خرجنا": 9427,
      "تخط": 9428,
      "كيبانو": 9429,
      "توجد": 9430,
      "وحده": 9431,
      "الدور": 9432,
      "تكبر": 9433,
      "جميعا": 9434,
      "2017": 9435,
      "مباغي": 9436,
      "##اريس": 9437,
      "لكبير": 9438,
      "والط": 9439,
      "شعلات": 9440,
      "شادها": 9441,
      "غلي": 9442,
      "ليليا": 9443,
      "كتهز": 9444,
      "الساع": 9445,
      "توب": 9446,
      "يدين": 9447,
      "سنايا": 9448,
      "ندوش": 9449,
      "##صدم": 9450,
      "##لاس": 9451,
      "السنة": 9452,
      "فحوايج": 9453,
      "##اسل": 9454,
      "تبين": 9455,
      "بيازيد": 9456,
      "تخليني": 9457,
      "برجليها": 9458,
      "##حص": 9459,
      "##حاليل": 9460,
      "لبيرو": 9461,
      "نعاونك": 9462,
      "بشرى": 9463,
      "الوليد": 9464,
      "داوي": 9465,
      "الشرجم": 9466,
      "##بلغ": 9467,
      "بلو": 9468,
      "تفضل": 9469,
      "ويج": 9470,
      "طريقها": 9471,
      "سالاو": 9472,
      "تصدمات": 9473,
      "فاخر": 9474,
      "لولة": 9475,
      "احي": 9476,
      "نوضو": 9477,
      "##مدينة": 9478,
      "عك": 9479,
      "غام": 9480,
      "لدارهم": 9481,
      "ورو": 9482,
      "يبكي": 9483,
      "المون": 9484,
      "اسمي": 9485,
      "ميل": 9486,
      "شغلك": 9487,
      "وطل": 9488,
      "##علها": 9489,
      "##اوط": 9490,
      "النمرة": 9491,
      "نوصلو": 9492,
      "يشافي": 9493,
      "الوطني": 9494,
      "مغادي": 9495,
      "نصبر": 9496,
      "جسدها": 9497,
      "عنا": 9498,
      "مقلقة": 9499,
      "##ترة": 9500,
      "مايت": 9501,
      "شيفور": 9502,
      "ضاع": 9503,
      "فايق": 9504,
      "برب": 9505,
      "غفلة": 9506,
      "##جيل": 9507,
      "كايجري": 9508,
      "جم": 9509,
      "##لول": 9510,
      "احمر": 9511,
      "ولكين": 9512,
      "##همة": 9513,
      "فالمس": 9514,
      "سواء": 9515,
      "فهو": 9516,
      "##غبة": 9517,
      "##دوس": 9518,
      "ماعجب": 9519,
      "##بحر": 9520,
      "حيدت": 9521,
      "كيبقا": 9522,
      "متخل": 9523,
      "##لعن": 9524,
      "لمست": 9525,
      "الاستاذ": 9526,
      "لولد": 9527,
      "نفسه": 9528,
      "##تية": 9529,
      "فرجليها": 9530,
      "معلق": 9531,
      "عشرين": 9532,
      "حاتم": 9533,
      "كنضحك": 9534,
      "لبوليس": 9535,
      "باينا": 9536,
      "كنتمنا": 9537,
      "##غار": 9538,
      "واجي": 9539,
      "الشان": 9540,
      "مساج": 9541,
      "تخلع": 9542,
      "صفحة": 9543,
      "تفضلي": 9544,
      "سكن": 9545,
      "كطل": 9546,
      "موخرا": 9547,
      "حانية": 9548,
      "##اسات": 9549,
      "مالقات": 9550,
      "والن": 9551,
      "السروال": 9552,
      "##ارتها": 9553,
      "منظ": 9554,
      "##وشة": 9555,
      "اكادير": 9556,
      "عارفا": 9557,
      "قدرات": 9558,
      "مطر": 9559,
      "بغيتها": 9560,
      "محلول": 9561,
      "شديت": 9562,
      "فاع": 9563,
      "نسالي": 9564,
      "فاض": 9565,
      "وحال": 9566,
      "##قتي": 9567,
      "تسول": 9568,
      "فتو": 9569,
      "##هادة": 9570,
      "والناس": 9571,
      "وراج": 9572,
      "ماباغ": 9573,
      "مندير": 9574,
      "مقلق": 9575,
      "##سكت": 9576,
      "الشكل": 9577,
      "بهد": 9578,
      "خب": 9579,
      "الصدر": 9580,
      "الوعي": 9581,
      "دغية": 9582,
      "فالصباح": 9583,
      "مفاج": 9584,
      "تمسح": 9585,
      "فالز": 9586,
      "##قوه": 9587,
      "طلقني": 9588,
      "واست": 9589,
      "حفيضة": 9590,
      "بهم": 9591,
      "بداية": 9592,
      "هكدا": 9593,
      "درية": 9594,
      "تعيط": 9595,
      "لواليدة": 9596,
      "لولاد": 9597,
      "اقوى": 9598,
      "رجلو": 9599,
      "رايك": 9600,
      "بساطة": 9601,
      "جابها": 9602,
      "كنتس": 9603,
      "ويخلي": 9604,
      "قبي": 9605,
      "##طاي": 9606,
      "العرش": 9607,
      "وقطع": 9608,
      "##اصي": 9609,
      "فكري": 9610,
      "عيطي": 9611,
      "خاف": 9612,
      "قهو": 9613,
      "كتبت": 9614,
      "لمرا": 9615,
      "مريام": 9616,
      "تصدمت": 9617,
      "صون": 9618,
      "راسه": 9619,
      "وتف": 9620,
      "نوار": 9621,
      "جزي": 9622,
      "كافي": 9623,
      "يفتح": 9624,
      "الرجولة": 9625,
      "مذ": 9626,
      "نبداو": 9627,
      "البيرو": 9628,
      "يطول": 9629,
      "الافلام": 9630,
      "وماك": 9631,
      "##رجات": 9632,
      "صالون": 9633,
      "الفجر": 9634,
      "وماي": 9635,
      "خن": 9636,
      "متبقايش": 9637,
      "مبعد": 9638,
      "كتقرا": 9639,
      "لوق": 9640,
      "اعطيك": 9641,
      "الرسول": 9642,
      "وجي": 9643,
      "كيدخل": 9644,
      "وبقاو": 9645,
      "##ءهء": 9646,
      "تلفتات": 9647,
      "وكر": 9648,
      "فالكوزينة": 9649,
      "##طحو": 9650,
      "اسمع": 9651,
      "تجب": 9652,
      "عدم": 9653,
      "الوسط": 9654,
      "كسيرا": 9655,
      "لاج": 9656,
      "##حث": 9657,
      "##قلق": 9658,
      "انما": 9659,
      "العجب": 9660,
      "ليتني": 9661,
      "هيام": 9662,
      "رايد": 9663,
      "رها": 9664,
      "عندهوم": 9665,
      "باستها": 9666,
      "الخطو": 9667,
      "اعمل": 9668,
      "لميس": 9669,
      "تحبس": 9670,
      "الجيش": 9671,
      "معهم": 9672,
      "وهيبة": 9673,
      "حركت": 9674,
      "وصفة": 9675,
      "وداير": 9676,
      "##كيك": 9677,
      "النتي": 9678,
      "تجربة": 9679,
      "رض": 9680,
      "ملاح": 9681,
      "بيضاء": 9682,
      "##طول": 9683,
      "وصوت": 9684,
      "بخفوت": 9685,
      "##ديري": 9686,
      "##قلبو": 9687,
      "دام": 9688,
      "##تلها": 9689,
      "نضر": 9690,
      "بعيون": 9691,
      "لمار": 9692,
      "##ضياتهم": 9693,
      "يستاهل": 9694,
      "لراسها": 9695,
      "التليفون": 9696,
      "ركابيه": 9697,
      "##توك": 9698,
      "نهدر": 9699,
      "##حشم": 9700,
      "شاي": 9701,
      "الوليدة": 9702,
      "الحش": 9703,
      "اسال": 9704,
      "##سمح": 9705,
      "##طفال": 9706,
      "ادو": 9707,
      "رابط": 9708,
      "##قيم": 9709,
      "التربية": 9710,
      "الرعب": 9711,
      "بخفة": 9712,
      "العسل": 9713,
      "موال": 9714,
      "##حتار": 9715,
      "معلم": 9716,
      "ادر": 9717,
      "شروق": 9718,
      "اروع": 9719,
      "ولبسات": 9720,
      "كلكم": 9721,
      "الشتا": 9722,
      "وراء": 9723,
      "ضربت": 9724,
      "عايلتو": 9725,
      "الفن": 9726,
      "حامل": 9727,
      "الخش": 9728,
      "دينا": 9729,
      "نبغيك": 9730,
      "##زاب": 9731,
      "##خسر": 9732,
      "##شيطة": 9733,
      "تيف": 9734,
      "المشكلة": 9735,
      "لجنب": 9736,
      "البارصا": 9737,
      "اروى": 9738,
      "النها": 9739,
      "گال": 9740,
      "المانيا": 9741,
      "فلق": 9742,
      "متوقع": 9743,
      "ريقو": 9744,
      "لغة": 9745,
      "بالاع": 9746,
      "ميمتك": 9747,
      "تصبر": 9748,
      "الحارس": 9749,
      "فطري": 9750,
      "قفطان": 9751,
      "لطواليط": 9752,
      "بوالو": 9753,
      "##سور": 9754,
      "##ضرا": 9755,
      "كنضن": 9756,
      "غالبا": 9757,
      "بكر": 9758,
      "فيلا": 9759,
      "بالر": 9760,
      "lt": 9761,
      "يبقاو": 9762,
      "مافيهاش": 9763,
      "والمش": 9764,
      "ملف": 9765,
      "وكون": 9766,
      "كتفهم": 9767,
      "بالظهر": 9768,
      "الجردة": 9769,
      "مغوب": 9770,
      "وخة": 9771,
      "13": 9772,
      "##ﺎﻟ": 9773,
      "بيناتكم": 9774,
      "##ist": 9775,
      "##سيمة": 9776,
      "تبت": 9777,
      "كايضرب": 9778,
      "الوطنية": 9779,
      "دمع": 9780,
      "يوجد": 9781,
      "جرو": 9782,
      "طايرة": 9783,
      "وغت": 9784,
      "الحلال": 9785,
      "سرح": 9786,
      "##اءل": 9787,
      "##هيش": 9788,
      "ونرجع": 9789,
      "عوجات": 9790,
      "تقلق": 9791,
      "كارو": 9792,
      "لفو": 9793,
      "##طرا": 9794,
      "##فيت": 9795,
      "##👍🏻": 9796,
      "##عيم": 9797,
      "بابوني": 9798,
      "يفكر": 9799,
      "كيداير": 9800,
      "جلابة": 9801,
      "##لكم": 9802,
      "##تيليفون": 9803,
      "##ولتو": 9804,
      "##ضرني": 9805,
      "اهىء": 9806,
      "##اونو": 9807,
      "مقدرش": 9808,
      "##ملو": 9809,
      "كاتفكر": 9810,
      "لحاجة": 9811,
      "وطلب": 9812,
      "##كيلة": 9813,
      "لمكان": 9814,
      "##هدن": 9815,
      "يخل": 9816,
      "##ac": 9817,
      "لعالم": 9818,
      "خاطري": 9819,
      "##همني": 9820,
      "كاتب": 9821,
      "كود": 9822,
      "##طعو": 9823,
      "العابة": 9824,
      "مخط": 9825,
      "حومر": 9826,
      "ضعيفة": 9827,
      "المكياج": 9828,
      "##نقز": 9829,
      "حقوق": 9830,
      "بالحق": 9831,
      "بالضهر": 9832,
      "كلب": 9833,
      "يحساب": 9834,
      "ماكره": 9835,
      "تفرجت": 9836,
      "البري": 9837,
      "المحامي": 9838,
      "حاضر": 9839,
      "##جها": 9840,
      "الجاي": 9841,
      "فحالها": 9842,
      "وصلتي": 9843,
      "جربتها": 9844,
      "دجين": 9845,
      "##اكياج": 9846,
      "علك": 9847,
      "غيرو": 9848,
      "##یت": 9849,
      "ترح": 9850,
      "شافيها": 9851,
      "##aw": 9852,
      "##افض": 9853,
      "لكاس": 9854,
      "تيشورت": 9855,
      "مقص": 9856,
      "الشراب": 9857,
      "الرييس": 9858,
      "وغمض": 9859,
      "قاسم": 9860,
      "##ايها": 9861,
      "علامن": 9862,
      "بحالهم": 9863,
      "صباعو": 9864,
      "دعاء": 9865,
      "تكر": 9866,
      "روحك": 9867,
      "منذ": 9868,
      "تسناي": 9869,
      "اتص": 9870,
      "داع": 9871,
      "فطوموبيل": 9872,
      "##دس": 9873,
      "فيما": 9874,
      "مالين": 9875,
      "مخلوع": 9876,
      "نبكي": 9877,
      "##اند": 9878,
      "داركم": 9879,
      "يتم": 9880,
      "##فضك": 9881,
      "بوز": 9882,
      "هدوك": 9883,
      "##برا": 9884,
      "##جرو": 9885,
      "##رباط": 9886,
      "##الدو": 9887,
      "لقلب": 9888,
      "وفع": 9889,
      "جبدت": 9890,
      "فجب": 9891,
      "##وراق": 9892,
      "توت": 9893,
      "المحل": 9894,
      "وصح": 9895,
      "الانتر": 9896,
      "##طك": 9897,
      "معق": 9898,
      "مسج": 9899,
      "فبالها": 9900,
      "توك": 9901,
      "##50": 9902,
      "##شيد": 9903,
      "التصرف": 9904,
      "نزهة": 9905,
      "بلح": 9906,
      "عطات": 9907,
      "زاج": 9908,
      "##بدة": 9909,
      "غسل": 9910,
      "##ومية": 9911,
      "ماعندها": 9912,
      "يكما": 9913,
      "زهير": 9914,
      "الاض": 9915,
      "##نتر": 9916,
      "الكثير": 9917,
      "تزوجي": 9918,
      "رواي": 9919,
      "حفلة": 9920,
      "حنينة": 9921,
      "السما": 9922,
      "معاهوم": 9923,
      "فكرتيني": 9924,
      "علاقت": 9925,
      "فحنكها": 9926,
      "##عاف": 9927,
      "خودي": 9928,
      "مجه": 9929,
      "بوحدهم": 9930,
      "حالتك": 9931,
      "##لاوة": 9932,
      "##اهير": 9933,
      "كتد": 9934,
      "اتج": 9935,
      "عرفتك": 9936,
      "ماباغيش": 9937,
      "حظ": 9938,
      "الفض": 9939,
      "##ركب": 9940,
      "سالينا": 9941,
      "ساح": 9942,
      "عس": 9943,
      "غتح": 9944,
      "##ot": 9945,
      "عارفاك": 9946,
      "المراية": 9947,
      "##صام": 9948,
      "ومق": 9949,
      "تعطيني": 9950,
      "##صراحة": 9951,
      "كيحرك": 9952,
      "##ادور": 9953,
      "راجعة": 9954,
      "قوليها": 9955,
      "وناس": 9956,
      "كنبكي": 9957,
      "الشرطة": 9958,
      "حدرات": 9959,
      "##عن": 9960,
      "تسمح": 9961,
      "مافاهم": 9962,
      "مكمشة": 9963,
      "جراتو": 9964,
      "ندمت": 9965,
      "شنايفها": 9966,
[...]
